[PAD]
[unused1]
[unused2]
[unused3]
[unused4]
[unused5]
[unused6]
[unused7]
[unused8]
[unused9]
[unused10]
[unused11]
[unused12]
[unused13]
[unused14]
[unused15]
[unused16]
[unused17]
[unused18]
[unused19]
[unused20]
[unused21]
[unused22]
[unused23]
[unused24]
[unused25]
[unused26]
[unused27]
[unused28]
[unused29]
[unused30]
[unused31]
[unused32]
[unused33]
[unused34]
[unused35]
[unused36]
[unused37]
[unused38]
[unused39]
[unused40]
[unused41]
[unused42]
[unused43]
[unused44]
[unused45]
[unused46]
[unused47]
[unused48]
[unused49]
[unused50]
[unused51]
[unused52]
[unused53]
[unused54]
[unused55]
[unused56]
[unused57]
[unused58]
[unused59]
[unused60]
[unused61]
[unused62]
[unused63]
[unused64]
[unused65]
[unused66]
[unused67]
[unused68]
[unused69]
[unused70]
[unused71]
[unused72]
[unused73]
[unused74]
[unused75]
[unused76]
[unused77]
[unused78]
[unused79]
[unused80]
[unused81]
[unused82]
[unused83]
[unused84]
[unused85]
[unused86]
[unused87]
[unused88]
[unused89]
[unused90]
[unused91]
[unused92]
[unused93]
[unused94]
[unused95]
[unused96]
[unused97]
[unused98]
[unused99]
[UNK]
[CLS]
[SEP]
[MASK]
，
的
。
-
、
一
人
是
有
在
年
「
」
中
國
大
會
不
為
.
（
）
來
時
出
到
,
上
日
台
以
e5
个
後
下
生
家
公
學
了
這
也
就
過
成
行
者
於
民
無
他
地
對
發
個
分
長
月
前
：
市
與
新
天
要
著
和
文
多
自
用
方
開
得
可
表
高
法
報
等
記
去
作
主
動
子
好
將
心
名
仔
部
現
我
所
事
當
經
能
因
北
導
及
同
車
場
本
都
政
外
小
說
ê
區
；
員
三
全
合
美
工
路
但
進
之
定
最
第
還
灣
起
面
加
間
十
其
頭
今
被
而
機
做
水
阿
手
示
業
內
講
看
教
二
元
南
！
理
金
並
選
位
由
正
愛
度
兩
道
入
重
體
力
明
電
立
1
此
總
至
該
山
相
林
提
已
女
意
係
期
斯
／
毋
代
安
化
平
情
關
2
東
通
利
目
物
點
打
任
球
萬
次
共
然
受
指
局
實
海
》
《
特
3
身
建
𠊎
想
院
伊
府
語
議
縣
西
性
原
應
老
資
〔
〕
賽
黨
隊
四
？
口
比
真
數
沒
知
軍
陳
影
如
馬
認
種
接
處
計
保
讓
統
警
食
使
們
世
回
你
更
運
交
先
從
活
氣
她
品
花
王
五
基
張
產
調
書
客
設
達
只
約
戰
未
感
常
再
音
向
男
)
問
近
師
即
務
持
爾
傳
德
友
社
風
案
結
號
或
攝
5
眾
單
轉
4
少
包
式
放
強
則
團
才
辦
管
線
光
落
又
查
連
投
程
直
參
司
英
節
果
清
收
聯
華
門
若
量
樂
演
樣
很
每
亞
網
科
委
里
校
見
展
變
像
舉
組
黃
親
治
照
義
信
流
改
造
空
園
克
色
各
士
續
較
話
取
帶
聲
反
百
首
解
拉
細
界
稱
商
醫
別
求
站
望
臺
題
視
己
6
太
昨
曾
佢
獲
六
i
完
請
費
制
片
助
ti7
除
觀
論
件
歲
格
神
字
in
專
許
李
港
決
羅
火
價
走
圖
幾
言
10
香
項
育
官
布
八
(
往
濟
支
九
白
據
7
料
讀
營
規
鄉
權
kap
半
緊
蘭
推
始
給
"
失
麼
告
早
檢
8
城
集
非
裡
福
聽
滿
條
希
死
創
標
母
命
農
“
卻
系
星
”
領
雄
引
服
遊
形
歌
畫
協
列
消
供
預
熱
屋
h
離
型
防
屬
兒
些
紅
獎
·
底
且
si7
整
研
beh
術
級
送
米
住
證
勢
七
超
季
史
質
容
聞
款
擊
難
步
際
率
透
依
護
票
綜
維
9
koh
千
仍
考
另
病
何
環
州
雖
排
根
備
段
巴
職
土
樹
紀
錢
傷
邊
擔
廣
爭
卡
店
那
停
鎮
把
石
雙
算
準
sī
增
吳
股
隨
班
致
確
角
需
鐵
龍
佇
午
響
類
t
宣
寫
初
田
興
境
積
拿
姆
億
省
青
姓
低
蔡
象
油
逐
;
尼
修
例
藝
lang5
買
志
施
留
12
深
m7
製
teh
功
古
夫
足
歷
易
快
究
韓
族
裝
河
頂
居
故
竹
害
覺
盡
便
房
笑
%
謝
飛
週
洲
救
晚
遭
僅
恁
編
派
具
菜
景
hou7
越
驗
遠
源
館
技
k
習
免
禮
席
媽
察
括
廠
歡
升
11
錄
唱
識
拍
息
普
評
劇
器
驚
精
試
喜
島
戲
狀
置
a2
攏
輕
蘇
登
…
念
父
配
肚
衛
戶
顯
勝
:
伯
歐
腳
疑
座
速
銀
久
予
況
雨
必
漢
兜
波
假
破
承
止
劉
thang
尾
擺
復
江
tioh8
斷
責
注
思
歸
旅
魚
周
陸
補
負
爸
判
份
樓
終
街
朝
隻
甚
效
署
否
群
存
討
/
降
佳
妹
限
草
賣
溫
養
夜
訊
值
採
陣
令
密
獨
退
跟
態
極
印
lai5
威
帝
副
牌
候
村
央
u7
媒
拜
榮
均
哥
聖
苦
陽
酒
財
嚴
航
嘉
tī
執
咱
背
曲
換
hit
20
版
宗
練
ū
楊
批
博
室
競
章
chit
武
核
啊
監
繼
壓
春
減
倒
雲
差
眼
善
健
味
控
劃
左
婚
圍
納
京
訴
模
弟
kong2
藥
層
牛
罪
優
翻
幫
順
秀
攻
願
險
待
黑
庭
I
奇
課
顧
宜
勞
智
訪
永
詞
測
嫌
寶
湖
貨
葉
閣
臉
烏
爆
lâng
毒
婆
童
康
冠
呼
暗
按
奧
咧
橋
典
策
孩
兵
朋
血
審
盟
瑞
殺
購
移
企
須
簡
吾
佈
倫
goa2
bo5
播
右
洋
律
找
婦
素
吃
構
30
絕
恩
額
欲
追
堂
益
莊
臨
抗
坐
敗
板
皮
域
ka7
守
甲
某
桃
chiah
切
肉
摎
柯
敢
仁
木
富
休
亦
餘
突
chin
談
khi3
％
犯
銷
佮
隆
露
叫
飯
彈
短
似
麗
舊
岸
15
幣
燒
野
般
猶
附
急
chiu7
洪
沙
雞
吸
尋
痛
療
延
慶
溪
川
鄭
餐
針
船
【
吉
祖
載
它
】
適
?
詩
呢
穿
盤
良
輪
泰
kàu
朗
售
豐
異
lâi
A
tio
阮
彩
竟
圓
絲
屆
搭
li2
鐘
舞
釋
毛
宮
燈
稅
a
哈
哪
夠
粉
申
什
範
惠
督
嘛
刻
刑
茶
恐
0
綠
chit8
微
衝
戴
雷
khah
森
幸
射
賴
乜
織
含
腦
估
違
散
慢
哲
享
洗
玉
蓋
孫
淨
仰
尚
紙
封
姊
懷
災
架
ni
兄
籍
彼
喊
述
牙
諾
豬
靠
冷
long2
雅
啟
索
訓
涉
塞
庫
頓
tit
避
亡
互
授
雪
材
趕
tui3
塔
徵
畢
迷
董
暴
kan
郭
13
蓮
16
玩
隔
危
輸
揮
p
bô
簽
kau3
18
損
邀
跳
尺
14
召
搶
廳
sou2
!
鼓
漸
忠
績
騎
轄
豪
頻
徒
ka
序
槍
替
缺
耶
筆
怎
藏
棒
錯
築
禁
漲
跌
招
妻
迎
句
貼
煞
彰
洛
貴
捷
藍
hō
瓦
堅
誌
雜
訂
莫
秋
充
肝
昌
跑
盛
靈
旗
忒
sim
嘴
珠
丁
私
染
佔
介
廟
罰
腔
慧
束
17
衣
付
佛
夢
烈
亮
坦
革
鬥
輛
遇
欣
穩
皇
．
乎
擇
21
紛
醒
遺
壞
碼
骨
激
階
巡
晨
an2
夏
苗
症
朱
幕
埔
梅
駛
chi
啦
患
25
勒
m
幅
chhut
賞
偉
融
偷
略
植
誤
chiū
困
潮
亂
詢
援
獻
徐
閒
keng
澳
軟
be7
擁
su
19
屏
『
返
狗
震
』
魯
萊
鳥
勇
seng
儀
娘
掉
冊
宏
零
障
薩
乘
邱
旁
胡
惜
kóng
姐
厝
邦
ui7
捕
冬
ai3
傑
惡
挑
脫
裁
楚
貝
君
駕
棄
袂
hoē
si5
怪
靜
峰
聚
剛
端
疫
擴
24
刀
振
誠
só
e7
抵
掌
寧
趣
泥
怕
答
熟
幼
輯
粒
抑
乾
拚
揚
冰
廢
併
探
豆
俄
贏
肯
50
譯
賢
溝
距
氏
湯
辛
逃
浪
壁
刺
賓
22
kok
套
貿
暫
Goa2
鳳
撞
麥
側
伴
符
兼
na7
尤
俊
鬆
脣
Ia5
偵
尊
奪
瑜
弱
託
勵
柏
曼
曉
23
映
鄰
甜
巨
硬
艦
甘
摩
麻
睡
游
芳
迪
愈
嗎
憲
遮
—
ke
努
耳
培
鮮
捐
凱
鏡
駐
偏
慮
掛
敬
淡
寬
淑
齊
租
khoaN3
厥
sî
糖
ma7
䀴
俗
遐
丹
侵
100
汽
khì
宅
勤
In
忙
床
役
伸
抽
診
盧
袋
煮
chai
皆
桌
塊
薪
蛋
儘
蒙
幹
敏
陪
bat
lah
廖
觸
拔
lin2
仙
nā
壘
漁
酸
抱
40
飾
借
ah
債
滾
宇
牽
28
爺
to7
oe7
tiong
累
析
番
圈
枝
操
凌
搞
途
26
籃
沿
－
g
飲
末
啥
唐
翁
衫
珍
縮
迫
宋
籲
菲
尞
tai7
舍
to
銘
27
瓜
ia7
廷
chhin
虎
〉
〈
鼻
i2
緩
錦
券
緣
寒
藉
刊
牧
松
固
choe3
ji
鬧
滑
吔
á
坡
hiah
輔
呈
蟲
祭
概
艾
擷
跨
阻
tuì
谷
紐
純
叔
絡
搖
鴻
廿
複
奶
慈
唯
hoat
喝
瑪
池
te3
遷
si
恬
lan2
橫
彭
iā
疼
儕
莉
赴
tek
倍
檔
忍
澤
輝
斤
匯
騙
杜
掃
lán
孟
孝
折
31
栗
拒
涼
憶
戀
祝
壽
跈
uī
漫
敦
leh
箱
29
暖
干
秘
琴
嚇
囡
sin
趁
颱
割
拆
渡
鬼
辭
鋼
蕭
哀
緒
鎖
混
炎
覽
hia
牆
慣
ta
屎
boe7
截
促
荷
顏
祥
疾
kah
握
貞
吹
罵
既
焦
it
拖
Siong7
泉
chia
旦
寺
埃
貓
靚
敵
toa7
jit8
顆
蒂
齡
lí
炸
堵
篇
na2
污
猛
cho3
巧
歇
盼
奈
\u
洞
呂
粄
2009
宿
玲
讚
the
2016
怨
堡
償
麵
遍
tè
襲
津
2010
茲
陷
í
踏
撤
礙
紹
帳
郎
覆
殖
晡
che7
褲
添
遽
后
托
獅
sek
奉
詳
癌
滅
囝
oē
販
choè
繳
贈
Li2
梁
跡
鋒
put
哦
khi2
逮
默
窗
煙
芬
孔
魔
閉
趙
搜
晶
尖
偶
閱
毫
佩
祈
穌
坑
毀
kiaN2
坪
tō
2011
晉
擬
頁
[
]
姑
thau5
肥
鍵
竊
喬
黎
丈
鹿
Hit
炮
狂
su7
措
徑
侯
歹
咖
魏
goá
塑
潘
li7
稿
bin7
胞
ho5
2014
ho2
裂
飽
詹
址
轟
Siōng
剩
ha
2013
贊
hoa
濃
髮
恢
疏
扁
軌
搬
擾
2015
賺
隱
耀
2012
臣
lóng
賠
郵
誰
娛
鹽
壇
註
貢
盜
nî
跤
妳
翰
憂
攤
潛
eng7
iau2
2000
懸
郡
扣
盃
爐
ài
ki
矣
柱
chiong
chai7
禾
鞋
伍
堆
sū
耕
鴨
tu2
鍾
抓
閃
60
熊
唸
壩
kha
慘
脈
忘
2008
描
涵
浮
沉
帕
陰
Ki
嫁
乳
摸
詐
擎
赫
准
獄
銅
2018
泡
圾
潔
##s
奏
mih8
kang
tok
戒
khoàⁿ
án
chò
寄
押
虛
殊
2017
ku2
頒
籠
腹
艱
礎
垃
液
汗
繪
厚
籌
輩
娜
插
Chit
膠
赤
choe7
哭
寮
繁
逾
吊
formula
井
toā
曆
200
cha
謀
ē
lai7
桿
腸
扮
迴
砲
恆
扶
旺
霸
占
goan2
敲
榜
蘋
悲
cheng5
kong
涯
劑
睏
衰
殼
phah
殘
秒
杯
爽
菁
沈
燃
嬰
tāi
挺
汁
碗
35
冒
吧
綱
慰
串
500
櫃
龜
辯
胸
箭
siu7
啡
Chú
梯
塗
Koh
邁
耐
蹤
仲
煩
旋
che
諸
kiN3
尿
鑑
伙
墨
濱
嫲
kā
腿
蔣
peh
怒
墓
譽
of
ēng
眠
燕
螺
卓
潭
kú
蛇
噴
chu2
翔
欠
lou7
nih
hó
鼠
柔
羽
誕
凡
裕
2001
彥
saN
囥
勸
chhiuN7
衡
羊
斗
沃
歉
薄
丟
hoe7
ni5
孤
趨
菸
錫
Ti7
妮
32
仝
祕
蜂
駁
契
謂
擋
募
吞
桂
蜜
允
膽
澎
穆
佐
堪
2007
禍
an
'
廉
灰
稻
桐
灶
圳
謠
sio
沖
暢
霧
稍
弗
肌
舒
函
炒
thiaN
滴
逆
掠
勳
卷
2019
巷
si2
慎
胎
chāi
hong
韋
khui
桶
2006
傾
悉
紫
琳
賭
庄
夾
剪
遲
o
亭
碰
捉
晝
se3
聰
錶
泛
弄
70
屍
chi3
飼
賊
傅
昭
葛
膚
臟
te7
忽
chi2
奮
撥
彎
嗄
挖
柴
玻
溜
餅
粗
tang3
殿
80
雕
逼
罷
椅
罕
mi
碩
chheng
貌
臭
45
循
sou
kiaN5
壯
崇
C
繫
gin2
薯
菊
卵
sìn
脅
蹟
岡
噸
B
繞
敘
氛
肺
sè
kam2
孕
bou2
拄
ná
騰
怡
tak8
昇
棟
曹
乏
桑
漏
爵
黏
湧
喔
e
300
kui
2005
逢
罩
貸
賀
兆
藤
昏
翼
喪
栽
婷
000
33
陶
嬤
乙
吂
吐
畜
chí
乃
鑽
菌
choē
跋
tng2
liau2
灌
齒
余
崎
璃
闊
濕
sit
梨
au7
魂
36
莎
驅
盈
勁
氧
揭
peng5
棲
cheng
bē
浩
siū
ma2
臘
躍
漂
軒
蕊
牲
34
茂
腰
肇
tē
暑
摘
瓶
吵
葬
拓
khí
loh8
夥
姻
哩
禱
縱
toa3
荒
咬
弘
頸
jin5
倉
Chu2
tiaN7
撒
箍
淚
妙
chiah8
mah
伏
I2
棚
霍
儲
khak
soah
喙
廚
乖
siuN7
ke3
譜
町
鹹
妝
劍
磨
沛
嘆
虧
勘
jian5
欺
屯
90
聘
闆
釐
爛
械
38
拁
帥
欽
塘
Iâ
刷
憑
幻
牯
taN
2004
ne
撐
揣
潤
ki5
軀
暝
so
āu
娃
攜
hun
泳
姿
卅
攔
M7
cheng3
jîn
肩
袖
lau7
賜
埋
飆
37
礦
罹
貪
隸
惱
姚
貫
chhoa7
bīn
khoan2
boē
鄧
Sèng
詮
窮
pa
凍
愁
閩
輒
俱
疊
Tai5
iáu
擦
拳
嫂
lī
曝
峽
sim2
逝
犬
腐
穎
葡
pài
斥
聊
mih
腫
ji7
擠
綿
昆
緝
嶺
賄
chiaN5
帽
軸
pún
chē
爬
猴
khoán
siat
滋
撇
磚
捌
饒
填
牠
倚
saⁿ
迅
la
柳
闖
遣
崩
夕
抹
逸
縫
盒
耗
糧
憤
撫
旭
oa
賈
脂
嘗
嶼
拼
萍
kî
hok
39
oân
澄
宴
chêng
膜
sit8
砂
怖
紋
碎
貧
鋪
chiok
chhiūⁿ
釣
The
chhoe7
擱
獵
悠
罐
碧
廈
頃
卿
Che
戇
獸
koe3
goa7
徹
陵
顛
2003
杰
艇
埕
婉
chheh
sian
踢
秦
采
kng
斑
遂
chhiu2
拋
ti
to2
轎
siaN2
芝
薇
oan5
lo
愐
毅
siông
kè
馮
丘
寡
萄
tiam3
thâu
siong7
洩
鵝
蝦
teng2
懂
慕
liat8
妥
綁
jiân
昂
櫻
伐
懶
鍋
儒
i3
碳
pe7
坤
遞
瘦
穀
欄
洽
裔
范
捲
chú
糾
燥
旬
thoân
le
偽
ong5
42
甫
玄
暨
鈴
妨
蟹
睛
siong5
辣
jip8
蹛
Tī
瑋
1000
2002
邏
se
狼
pang
PO
琪
鷹
si3
撿
瞭
翠
斌
Tâi
糕
杉
lāi
lo2
khia7
碑
瑟
緯
淺
燦
倈
頗
Iok
蕉
淹
掩
戈
im
艘
and
hak8
nih8
lō
岩
遜
扭
bu2
醉
盆
灘
sin3
蝶
悔
雯
薦
浙
壢
龐
chiu
嗆
iah8
偌
tó
khó
檳
pun2
S
潑
仿
chhu3
pai2
佑
lé
濫
goā
kau
貶
坎
siaN
扎
柑
奴
棋
55
##a
48
41
siN
jī
冤
K
kiam2
tiau5
鳴
屈
koan
茨
浴
韻
廁
00
thiaⁿ
煌
囊
kim
馨
hi2
奔
‧
101
恰
kio3
彙
遵
芒
kin2
撲
殷
隧
侶
弓
刪
T
ki3
43
樺
鏈
che3
鼎
禦
瘋
phaiN2
oah8
44
銜
bêng
晴
400
柿
46
輻
瓊
舌
##e
匹
1999
M
籤
辰
嫩
煎
thiN
粽
’
toe7
kun
肅
浦
稽
坊
叢
ko
墜
sí
兌
pêng
廂
帆
65
浸
siong
削
喻
俚
痕
kin
sai2
苑
卜
熙
beng5
筋
s
tú
砍
liáu
lian5
蔬
呀
斜
珊
牢
締
khang
ì
1997
kiat
nng7
膨
sin5
鑊
P
堤
蒸
theh8
螢
胃
叛
chiau3
訟
樑
choaN2
chek
垤
催
醬
kak
摔
Lin2
kui2
諮
誘
茹
脆
擐
厲
su3
俐
bun5
kì
肢
kám
娟
憾
恭
𢯭
惟
47
恨
啾
ki7
ui3
kiaN
矮
瑩
辱
chui2
mia5
凳
麟
胖
垂
磁
霖
擲
岳
彌
爿
sat
臥
侍
49
拘
pai3
迄
榔
卸
徽
躲
儉
chap8
喚
捨
挫
蹈
kiáⁿ
遶
鰭
征
唉
piN
##2
詔
chong2
sui2
亨
傍
chhia
chóng
淋
蔗
砸
郝
擘
紲
75
仇
謙
tô
拈
咪
iaN2
誇
hoaN
舅
塵
攀
扇
猿
1998
汰
1990
52
凝
kò
chu7
廊
勉
le2
枚
siN3
稀
po
bak8
阪
糊
寸
sím
晃
裸
拾
諷
枋
旨
噭
51
鬱
2020
蘆
憐
忌
un
ló
犁
懲
gī
siⁿ
lia
盾
眉
lo5
嬌
謹
僑
koan5
chiá
siūⁿ
泊
辨
Kàu
ho7
汙
衍
Bo
sui
to3
徙
囉
pek
sîn
炭
Ka
崗
chun7
御
炳
于
chiap
kuí
hu
閹
虐
崙
叉
chèng
ti3
150
he
U7
疆
悶
卑
披
幽
塌
誼
蘿
丙
iuN7
chhun
坵
蚊
煥
篩
siōng
纏
繩
勾
礁
您
鍊
寵
蒐
歧
siā
喉
娶
遙
Tui3
瘤
徛
seng3
kang7
腎
sia7
54
寓
X
tit8
遼
3000
蹶
撰
600
53
溚
︰
綴
吻
疲
諒
緻
khou2
ban7
墾
棉
tou7
犧
鵬
liân
虹
tiāⁿ
D
kiu5
khu
靖
5000
饋
剝
Tiong
hāng
飄
盪
iú
kou3
蕾
56
蓄
kai3
挨
扯
##n
紗
鶴
淘
欸
掣
薑
gia
kìⁿ
téng
lek8
95
酬
Goá
nn
襪
臂
kiù
庇
屢
F
筍
姨
lim
丸
祐
餳
汪
thiaN3
斡
怙
103
tha
pō
膏
##3
tn
湘
劫
104
##1
盲
惹
hoe2
蓉
siaN5
茄
秉
曬
kek
hêng
##5
狹
踩
騷
ng3
焚
1996
105
br
bian2
崔
漆
霞
鶯
hí
倆
02
磯
樟
僱
kiu3
舟
釀
譴
掀
妃
gau5
chhoā
Sou2
##7
粹
闢
斬
睭
102
ia
宛
1995
thong
1980
琉
墊
http
soaN
巾
kiâⁿ
扑
筱
耍
傘
800
miâ
雀
chū
*
緬
64
sù
pò
pi2
tì
鈞
heng5
趴
liah8
kai
57
］
傲
iu5
酷
iah
NBA
mng5
甸
榕
58
畏
leng5
肖
挷
hu7
1994
98
纖
99
［
85
hoan
祿
gi7
兇
72
勿
bó
Taⁿ
烤
thiàⁿ
覓
Lan2
腕
誓
呵
iok
駿
賦
oa2
lāu
sak
lô
&
筒
##8
1992
leˋ
朵
茅
抄
跪
sêng
hui
E
厄
晒
薛
郁
猜
hng
淵
siau3
餓
凶
sèng
seng5
株
Sian
瞬
樵
抬
奕
厭
崠
goan5
lūn
hang7
107
膝
勻
瑤
bo
懼
紮
淰
宰
tang
脊
矩
漿
媛
勃
糟
擅
kiám
齋
挽
姜
hāu
Tai7
壤
bang7
soà
毆
pi
偕
蔥
gâu
chhit
菇
thai3
溼
歪
楨
khun3
凸
ou
掘
lau5
soa3
106
鮑
巖
120
辜
Lán
嘰
袁
匪
pak
lioˋ
chhe
煤
Seng3
呆
kài
Chóng
窩
siok8
諧
lín
hiān
淪
hoaⁿ
蓬
滯
tng
59
siu
鉛
ho
hiaN
Na7
Kau3
108
俞
甄
巢
祀
62
溶
mng7
羞
悅
chau2
啉
玫
俠
履
Tuì
koa2
郊
lun7
捧
thai5
mn
bin5
66
gi2
tiap8
禹
am3
傻
bāng
匙
哉
挪
chiN5
khai
釘
閔
踐
撈
劣
01
膩
##i
宙
hau7
蠻
cha2
kín
棍
峻
鑼
bián
tok8
68
弊
卒
61
eˋ
##4
1993
蔭
哇
鞭
##0
chì
潰
扛
chiuN7
63
com
pē
sì
酌
巫
thoan5
悟
吟
銳
橘
tng5
謊
昔
茫
iu2
框
崁
婿
ǹg
goán
pah
Ū
Sîn
Lí
屠
thiⁿ
虞
bûn
88
罔
槽
goân
狄
sng3
烘
慌
chhui3
1960
碟
攬
邪
sio2
Só
焰
##y
##o
hiong
喘
芭
夷
bú
lêng
慾
※
匈
1991
io
J
giah8
翹
倪
in3
bi2
chong
汀
li
秩
teng
Google
thài
竇
67
蕩
攪
鯉
挾
矛
溢
陀
05
keng2
璋
禽
iàu
iPhone
逛
chhai2
爹
hian7
chhim
eng
惑
腺
喀
chhiaN2
##6
畔
湊
koè
姬
贓
禎
眷
彬
tau3
雇
刮
hioh
71
吋
艙
chham
涅
陝
枵
裙
弦
芙
尹
oh
杭
97
叮
chok
罅
汝
eng2
lan5
iūⁿ
1989
兔
醜
芽
76
僚
ge
蟻
92
鯨
chhù
iû
庚
兮
96
蒜
pou
Ma2
朴
1988
檻
73
昱
hi
kho2
瑰
kip8
Sin
缸
tong
樸
tou5
69
–
迦
戚
chia2
窟
chiâⁿ
暈
hū
pou7
倡
芋
06
鈔
睹
eng5
Ko
thak8
1970
僧
hô
1950
薰
the2
Nā
灑
tiàm
詠
敨
kho
噥
齣
TaN
躺
霜
寨
chai3
喇
78
tw
kian3
Chin
淳
kai2
媠
be2
魁
po3
1949
濁
kiò
綺
chiàu
翕
纜
緪
mia7
餵
pi7
08
koat
椎
An2
74
妍
hoan7
赦
錐
iong7
簷
kó
Chong2
奎
槓
卦
tńg
庸
lu2
諺
choân
Pa
漠
MV
toe3
he7
700
鴉
惶
leng2
ek
hok8
goe
choan5
03
摺
鄒
捍
癒
欉
94
##9
啤
䟘
襄
lat8
魅
磅
pái
77
萱
hun7
癮
狐
86
siá
泅
chè
Tāi
瓷
sia2
82
thian
gín
陂
tiâu
滲
07
O
綫
pe
chuí
ba
尉
Beh
tong7
羈
竄
kī
mā
chng
樞
84
嘲
87
bān
禪
1945
than3
khng3
Eng
鉅
奢
倩
碌
hoe
豔
phoe
chiaN3
ka3
燙
鋸
sai
hong5
縛
thé
81
㧡
1987
chin7
遴
咒
1985
伶
oh8
Iu5
犀
09
##r
jia
柚
炙
toh
chhiáⁿ
簿
𥍉
蕃
koaN
93
04
仕
匿
笠
宵
醇
pat8
稚
屑
妤
H
壹
lam5
hut
kheh
chîⁿ
拱
旱
煉
kiaⁿ
tian7
磊
拂
唩
癢
91
83
pian3
lok8
khou
氫
Thian
驟
搣
iuN5
淇
cho7
秧
chhe3
祠
髒
泓
踮
淮
pang3
繡
彷
Goan2
1986
篤
N
lâm
藩
hai2
岱
訝
hoah
hiau2
79
羨
溯
taⁿ
喲
飢
鍰
lú
抨
‘
Bi2
舖
揹
kiû
kà
邵
R
揇
蝕
蔔
īⁿ
kiàn
gou7
糞
捽
chha
89
紓
pp
Hi
瀉
kam
慨
hian3
竿
涎
110
tiam2
te
肆
矚
má
璟
chok8
咐
蛤
檯
蟬
妖
peng
teng7
輾
爪
驕
紡
tiam7
濾
嘎
chou2
屁
窄
穴
chō
po2
姦
丞
粵
Ah
塢
boe2
掏
乞
boeh
閘
娥
舂
for
iau3
硫
siau
Bok8
尬
II
鈺
tah
sun
lou5
kaN2
3D
##t
豹
搓
Má
1984
彿
狠
冕
tek8
chin3
揀
tò
銓
夯
tiōng
bai2
瀏
siu2
棵
僕
芸
pó
siuN
祺
穗
晟
馳
逗
kéng
Chiah
chá
##d
萌
te2
脹
tiong7
樁
chu
韌
YouTube
bok8
1930
鴿
趟
泌
椒
埤
窯
soe3
x
ui5
凰
堯
Se
涂
hiaⁿ
han3
甦
褒
leng7
chhe7
hiàn
鬚
1983
toà
Í
ma
盎
膀
霆
蒼
soaⁿ
楠
khek
尸
pí
佗
輿
穡
枯
chaiN2
贖
L
嘟
偎
沾
蛛
chun
su2
250
keng3
翌
札
圭
chìn
蔓
葵
剖
濤
pou3
墩
lio
1982
楓
梓
giap8
寂
撕
Si
蕙
睿
諭
tiám
chun5
hē
笛
嘯
sai3
liām
譬
噪
矺
tiõh
斟
chhiu7
脯
晏
酵
吼
tang7
hu3
G
嚐
ham7
V
pau
hoe3
tau
拐
sa
LINE
憩
渴
LED
橡
kho3
聿
tōng
ko3
tiuN2
hai7
枉
Ai
1979
peh8
Bo5
卉
no
珀
殯
矽
sǹg
譚
艷
挲
1937
ok
kou2
矻
1500
淫
moa2
lah8
beng7
梳
唷
芹
餔
皺
eˇ
斃
têng
chhiú
恥
云
keh
諜
芯
僵
www
lip8
揆
that
炊
衷
êng
渣
hng7
唇
siaⁿ
iau
siàu
㓾
joa7
1941
毯
pan7
sú
Windows
悄
de
Te7
豫
崑
棠
奠
汶
1978
椰
4000
倖
gióng
翅
Chhin
斐
bé
杏
揪
咻
莓
悍
1920
隋
鋁
仗
mi5
koân
130
椏
荔
蒔
Tek
goeh8
bo2
瑛
囚
san
liam7
竻
凹
##ing
kái
捏
鰻
ìn
酥
lun5
Mou5
瑾
uì
蝴
蛙
嶽
吩
##A
咕
Si7
tang5
n
6000
Sat
捩
228
踅
pī
ku3
pit
豈
頷
heng
頰
臀
秤
Hou7
朳
@
būn
欖
Ji
梭
leˊ
颶
俘
伽
lioˊ
鑰
蠟
菩
Hoat
汐
撼
憨
鎊
bun7
蔚
綻
##er
枕
袍
piⁿ
khau2
菱
chio
1958
揫
顫
滬
摧
tông
soan
tiúⁿ
梗
siāng
hūn
澀
niu5
leˇ
kang2
U
bîn
khui3
尷
chun2
宥
##l
蚵
暉
miā
銃
kù
壟
##m
崖
tong5
1981
鱸
媳
iu
na
chīn
隕
瀾
pháiⁿ
geh8
chhi7
180
tia
tin7
芮
焙
an3
胺
氯
牡
Sui
駭
pit8
on
啼
1946
hoan2
毓
拯
siú
is
摃
醋
籬
tsit
seN
káng
划
hoé
5G
chiàⁿ
sioh
##S
襯
Li7
黛
Tioh8
悼
睞
哺
霄
裹
檨
賤
鹼
蒲
莖
臼
sai7
邨
綽
屙
庶
1933
滷
隙
棧
嘖
hap8
chài
﹔
咾
扳
帖
lâu
蹄
籽
tho5
烹
phoa3
hoán
粘
絞
柄
鑄
900
侮
1947
盯
楷
hoà
chhiong
khoai3
懇
叭
Bí
噹
茵
1948
suí
khiok
chiu2
棺
抒
酪
hoa3
嘻
gun2
竭
澡
跍
瑚
𧊅
蜆
陌
pīⁿ
lân
Kong
teng5
炫
敷
pok8
搵
渠
1968
1954
燭
趾
Chheng
sió
edu
肪
1940
摻
吠
sìⁿ
髓
1966
萎
cho
mai3
khong
chhái
溺
un2
Lang5
愉
goan7
toē
tan
龔
鉤
櫥
éng
伺
chhio3
脾
耿
嗣
kou
chhiN
褻
渾
梵
1975
愚
ku
khiā
bong2
窘
tāng
虔
tián
chó
琦
吏
tâng
柵
119
暱
挹
soat
oan2
chian3
朏
niû
le7
鐸
hōo
gu5
1956
Hok
鑫
豚
拗
hoān
poaN3
chioh8
liam5
胚
棕
han7
嬋
曠
kèng
DNA
拌
蠅
珮
àm
頌
剷
koaⁿ
bēng
koaN2
の
eng3
丑
hiong5
chheng7
Q
藻
160
liap8
chai5
jin7
1955
kek8
oá
khioh
a3
芷
uî
khò
##h
kiaN7
曰
挼
toh8
1964
1934
昀
熬
siuN2
呎
he2
Kok
thó
neh
1935
柬
昧
pian7
Pek
#
楝
哨
kū
hun5
jiat8
140
Tang
皓
趖
籮
koa
1200
漳
揢
choan
烯
piáu
紳
chān
chat
koan2
瞻
撩
kau2
沸
捋
ióng
湛
鞏
刁
pia
1952
苯
bu
1932
舜
橄
佟
phai3
iong2
chhi3
繕
khan
1936
bi7
1959
khùn
chhong3
hiat
疹
濛
##g
棘
墳
鑿
gian5
Pi2
儂
筷
奸
chhiat
1972
杈
John
劾
絨
矢
iaN5
He
Tē
謎
粟
篷
梧
1965
篙
沫
拭
糜
榴
甩
嬷
ông
hù
雍
癱
寇
亥
tiuN
菅
芎
8000
ian5
1976
蝠
褐
尪
khin
雌
sò
hān
iN7
b
跆
jî
hn
傢
nia5
讞
1977
鑲
粿
pun
荊
ang
猥
嬸
1928
幟
kiong
Chi
蕨
昶
咽
烳
cháiⁿ
1973
邑
砰
匠
kian
2500
寅
ia2
chûn
踴
cheng7
PTT
Chiu7
囂
冥
tan3
Pó
1939
1957
##k
堃
鱗
An
瘟
##ed
piàn
ku7
1931
thai7
1963
溉
tauh8
鷂
鈕
糯
1974
gō
APP
豎
style
jiok8
魄
嶄
咳
謬
Lo5
tsiah
##u
袱
iong5
GDP
諱
絭
掙
瞄
旻
泣
宕
婕
1967
嵌
chio2
chiūⁿ
1938
瞞
劈
bí
緲
hoè
1942
熄
繃
崛
pai5
hāi
潦
the3
1969
訣
痴
恒
jīm
iông
閻
bih
貯
choa7
tàng
##C
瀑
杖
1953
109
窿
嬿
IC
ＥＣＦＡ
瑕
㖸
lîm
ap
淤
壺
鯊
酶
搏
哮
thô
Hui
koán
be
沼
嚀
竣
逕
hng5
gong7
CD
1961
緋
瓣
嘔
thàn
Na2
1971
芥
##on
躁
絆
chiām
鄂
臍
䌈
hian2
弛
chhat
隍
胲
坍
sui5
瀛
Lūn
chiong2
chim
狸
熝
kun7
colspan
sian7
san2
chan7
1944
喏
・
Lô
ti2
id
It
1962
1943
瀕
thou2
瑄
lu
昕
Ong5
JR
piN7
center
align
嚕
pān
lē
誦
koàn
khoài
biat8
醃
禧
掖
gí
咸
MVP
poe
鱷
tēng
笨
筊
châi
káⁿ
khong3
癸
KhoaN3
nga2
background
蔽
痠
夭
chiam7
350
邸
OK
1927
tat8
chhek
嗽
呣
ai
綸
竳
桓
hui7
HD
謗
sái
bah
筠
thou5
kip
boé
Jit8
pha
koan3
嗶
腥
滄
ˋ
kut
澱
萁
壅
text
蠶
噶
僥
sang3
lut8
墘
seh8
Tiúⁿ
gú
Tng
piah
沓
to5
靂
訥
傭
chhu2
siâⁿ
顱
siúⁿ
##us
恤
sou3
ún
ji5
AI
矯
剃
刣
1951
裴
膴
oan
sài
燻
hakka
蜘
殉
New
腓
sng2
聆
抖
te5
lak8
弇
chún
170
餡
liu5
dict
Sin5
漬
tian2
cheng2
寞
me5
Lâng
BBC
橙
piN3
剁
gah
Au7
逞
匆
goān
駱
with
tu5
sia3
phài
Kai
pan
鬍
hái
James
褪
牟
沁
媚
Lamigo
ki2
愷
seⁿ
jio
chhī
1929
iáⁿ
1925
pàng
賃
蹲
妄
箕
color
##00
at
Siat
piau2
蟆
lim5
毗
骸
陋
khoah
thit
piān
ni7
W
1914
112
ín
氨
koe
1900
giân
kui3
chip8
瀝
iōng
Lîm
鈣
棗
嵐
炆
杆
僻
tam
ke2
剌
khoe3
moá
DVD
Chit8
沐
Hiah
hau2
To
Lâm
賁
墮
tui
剿
tàu
chhau2
脖
啞
sok
Pak
Nga2
蔻
誡
Kin
粢
怠
125
燉
攑
7000
啄
silver
chih
c
騫
揞
妓
poah8
kí
1926
soè
chió
lin5
111
虱
kiong7
菘
Facebook
滕
洶
##E
鯰
璞
khuì
苔
欒
hông
晰
䟓
thâi
oán
苓
穫
鑾
蝙
nah
ng
ka2
jīn
hiáu
him
馴
匡
sip8
唧
thè
磷
疵
1924
thok
遏
臻
theng3
in2
礫
ni2
盞
tng7
360
115
sic
颼
##P
bū
渺
Tak8
韶
Bô
詭
絃
tai5
ju2
tiau7
tam7
綑
IG
1918
theng5
馥
Thoân
臊
曖
噗
栓
cháu
鈉
垮
勛
gu2
着
phoaN3
khau3
Tio
姪
##B
瀋
chhuì
攞
憫
彤
David
蘊
poh8
晤
抾
囑
iū
噓
匝
loa7
Tu2
畝
##ng
擒
撓
chhan5
Chiong
萃
蜀
thoat
oat8
##O
鏟
綏
頑
1912
誣
苳
kiong5
tê
隘
哎
tho2
ko2
La
傱
tiau
茜
iûⁿ
chip
蓁
peN7
gi5
but8
垣
Tân
Su
PC
靴
闡
Toa7
thih
曙
繹
萋
chhoah
畀
栖
tih
kiah8
Chiàu
蠕
簾
gia5
琢
tai
soaN3
NCC
蹬
肘
篾
tiuⁿ
摟
piN5
bong7
裘
琬
猩
phang
1919
iok8
嚨
吱
China
鵑
冀
ga
Kiù
thau3
léng
愧
嘩
Kim
Hiān
廓
凴
睜
渦
nia7
hûn
Chiū
嘿
瘓
luī
chiàn
雁
Cha
118
俸
gián
䃗
thai2
寢
―
poàⁿ
oaN7
Phok
Apple
岑
倘
té
thāi
sun7
se2
113
珉
pang5
kháu
lēng
哽
tiuN5
淆
賰
葩
1917
靶
歕
繽
tàn
hu2
稜
long5
iu7
誹
塭
suî
tiān
槌
懿
choh
bou7
Taiwan
咯
##01
爍
悽
諡
pho
髀
Po2
##T
溥
tong3
Ａ
Mô
釁
舶
iân
Y
皂
giām
nia2
磬
擂
tap
鏽
neˇ
Fed
巒
ˊ
liû
kham3
Michael
1922
碁
烷
ek8
孵
heng7
539
潢
kun5
翡
咄
1916
𧩣
攸
thong2
睦
甯
熔
ieˇ
##an
葫
禿
俏
Kap
Iû
do
Teng
##N
釗
擄
iPad
##D
蠢
koai3
Put
##es
thang3
斂
幌
siang7
Instagram
眶
滇
塚
huih
疇
chiau2
TVBS
1921
鞍
phoà
chéng
siān
酉
粥
氮
恕
囤
chong5
孲
ueˇ
弧
oāⁿ
liau5
koaN7
hēng
4G
戳
liâm
hoan5
hi5
bong
Lun7
躬
埠
sut8
er
魷
hiuN
jim2
茉
瀚
Lau7
khiàm
su5
痺
was
豁
苛
撮
tui7
sih
khi
hoa5
KTV
##M
稠
曜
噁
鐮
懈
muí
123
庰
1911
瀨
聶
chan5
by
jiah
sāi
phian
錘
峙
seN3
chheng3
ang5
殲
chha5
cheh
116
癲
hián
鷺
pâi
loā
1923
114
thoe3
gun5
chhòng
èng
閼
嘶
1909
灼
##c
sûn
hoe5
chiu3
衙
117
閥
poê
chhap
阱
鬃
iâⁿ
chioh
DIY
khǹg
hú
from
chhì
Sī
氟
chhui
俯
toaN5
Kong2
Ia7
1913
窒
湳
倦
pìⁿ
kia
bōng
TV
駝
teuˇ
siau2
piat
liong5
Pe7
tiau3
mî
Lō
##I
晾
kūn
##L
裏
佬
Lou7
揉
莞
擛
cham7
ui
慷
佯
piaN3
Tan7
琵
DRAM
蟾
瀆
Soan
lan7
hè
1915
酮
耆
giam7
chu3
鍠
拇
lui7
chho3
墅
you
bi
165
霾
un7
hu5
135
kin7
﹕
窺
bō
蜥
哆
pēⁿ
﹗
虜
u
d
App
譏
敞
1910
驛
斧
卯
匣
tann
匾
hoat8
Bun5
AV
蹀
檸
tu
kang5
Kiam2
122
侃
thun
胛
the5
sià
鯛
dedˋ
chhiū
廬
叨
儆
hàu
145
128
癡
狩
chiam
1800
chiú
HR
##en
澆
koa3
Android
hōng
陞
婭
哼
liok8
Ta
1895
汕
㪐
lam7
朔
孜
hióng
àn
liau7
lian7
疤
toan3
kong3
hiaN5
chhiⁿ
chhin3
ti5
Ông
siu3
bou5
III
儼
poaN
Love
hiam2
Paul
240
tou2
sut
ngou2
檬
siang
khoe
hui2
hoê
岐
汛
uh
as
缽
thau2
tan7
han2
chù
##x
拶
ㄨ
taN2
Thiⁿ
##in
kui7
宸
chhoē
127
钁
煽
bī
##R
酯
帛
瞑
piat8
煜
long
ké
##F
耙
笐
眨
痟
璇
尻
瞎
tiàu
na5
chhú
1905
190
哱
poaN5
##K
饗
阜
siong2
乒
sán
he3
豺
鎂
悿
thau
University
Hui7
渥
seh
bóng
liâu
126
鰍
poe7
chióng
chin2
侈
chui7
121
戌
Sìn
One
孳
Thang
玟
佼
煠
么
liong7
520
鴛
甕
扼
bin2
鞠
庵
1600
艋
膳
撻
Kam2
叡
gî
3C
麒
hùn
chong3
124
鴦
霹
茱
sūn
sióng
ian
戊
220
臆
khoa2
ThiN
９７
嫻
a7
釜
踔
舺
敖
搐
phian3
##G
涿
咈
Ki5
Goán
胰
糙
硝
燮
koah
hiong2
摯
choat8
chheN
鵲
鈍
ūn
tng3
jim7
chiuⁿ
迺
toān
Khó
Jin5
1901
PM2
3A
phiau
chhē
墟
kun2
i5
gak8
綵
chhng5
嚷
Chia
銬
粑
煒
koaiN5
羿
瑯
噦
攣
吶
Kan
World
Aukele
hoaN7
扐
thoa
sun5
bu7
Kî
Ha
CNN
痀
soe2
Kho2
暮
450
綾
幢
phok
152
煲
khiam3
Hō
胭
琛
niá
tsia
Sio2
跛
烰
剎
Gô
鍛
惰
hàn
139
𪜶
轍
huì
餃
睽
嚼
155
##X
##al
陡
gim5
醮
覕
瞳
懊
嗜
kīn
kham
箸
磺
le5
hoeh
Heng5
繆
盔
沂
kiōng
Chiau3
肋
簧
瀅
凊
杓
瘡
畚
oan3
Kū
酋
綢
眺
峯
hong7
chhoan
BMW
168
妒
sii
kio
chu5
chhat8
SAO
hui3
賑
嚮
咀
Keh
lak
驢
喂
咎
哄
詼
thiah
pak8
gek8
151
闌
澈
淒
e3
SBL
胤
扒
are
HTC
B1900
顎
鑒
乍
Ai3
搗
Kiu3
132
129
霎
恍
Tok
Pē
踝
确
壬
suh
sam
箏
羌
瑣
榆
亼
饅
荃
弔
刃
séng
pek8
chhian
ChhiaN2
鮪
鏢
lioˇ
Hong
唆
khut
Ka7
侷
136
鸚
鍍
翊
縈
砌
tām
lûn
chhiuN3
Toā
橢
tiûⁿ
thiau3
148
渭
嗯
贛
kiau2
冶
冗
thêng
lap8
檜
thàng
codice
Hap
210
gîm
147
鋛
ke7
137
toe2
焉
喃
咩
Kho
boh8
Sam
纂
poaⁿ
chiong3
眩
峨
Koan
筏
hau3
愕
piaN2
loan7
駒
gin5
chut
chhēng
Goan7
乓
tû
ＧＤＰ
稈
狙
槳
táⁿ
f
Iau2
崐
pîⁿ
gîn
154
蜍
kuì
hiong3
chín
1903
131
窪
懋
tòng
tian
hek8
138
吮
bái
230
澹
蝓
耘
喧
tâi
ha7
㜷
sàng
IP
Ho7
750
1907
134
莽
莒
璽
沮
嘺
chòng
144
蠓
teu
chhiuN2
1898
NHK
ISTAT
158
雛
羹
lin
khoeh
hap
Pí
湠
káu
go
Bat
閨
琅
姍
am
醹
tan2
You
175
1300
坂
thiap
AKB48
戎
弈
tam5
麓
aN3
pu
Tan5
Sim
年
髻
譁
堰
螂
薔
槿
昊
142
鮭
踹
146
靡
蕪
渝
岔
gû
1906
149
143
噬
1908
153
mou5
toê
khok
hong3
9000
##V
捆
呱
剔
koaN5
kiāⁿ
暇
圃
sé
or
##ly
蜒
siáⁿ
ngó
jiN2
156
133
詛
彪
giam5
浚
惕
巿
mui2
khe
Cheng3
280
鉀
悚
䉂
mai7
黴
獼
咚
liu
International
thái
peng2
hā
gov
chhiah
聳
抺
me
躪
褫
悴
soa
liān
檀
Sè
EPS
肨
撙
khau
Robert
lo7
chho
l
bat8
貳
絮
蔘
扡
Lú
Jîn
George
lam2
chheng2
樊
鏞
攢
kaN
chhiau
φ
Sek
痘
擳
葦
桊
挵
liông
Twitter
蠍
Ho2
185
##z
##b
磡
poe5
chhan
鋤
剋
phu5
news
Uber
堀
png7
藐
siok
pai7
163
鄙
迭
胱
畿
磕
碫
潟
榻
•
tin2
hi3
Mark
soàⁿ
lîn
豉
胥
濬
be5
垺
匱
VR
Mike
141
chi7
chhou
瘀
鯤
kià
hiám
WHO
1902
鳩
彗
崴
孚
哢
hou
Z
Su7
黯
証
toaN
io5
vs
Han3
佃
tou
san3
choeh
chhiò
碇
瀰
koaiN
khok8
have
https
giau5
an5
聾
楣
chhè
Se3
IS
邢
狡
Khah
##p
皙
hoai7
Ná
乩
猝
kiông
A2
1904
pun5
phin2
iu3
chham2
1862
峭
tuī
siam2
chang5
San
ioh8
bu5
bit8
苞
thoè
侄
song3
葆
漚
khit
ESPN
Lín
暌
帑
soe
kat
No
169
1400
##le
soan2
mail
Bûn
膿
嗅
mê
ATM
蕎
li5
1897
159
砧
漕
揙
碾
嵩
鉸
磐
so2
chhau
BD
162
157
癖
碘
So
Ho5
kim3
hām
choa
Kiat
鷗
kiam
kan2
So3
Live
諫
杷
pi3
org
hoân
甥
囪
liōng
liāu
khiam
his
Chhiáⁿ
Au
耽
穢
kiau
Line
##W
sng
la5
ju7
chēng
肛
瑙
sèⁿ
捒
嗚
鵡
侖
tsiânn
toaN7
soa2
phut
phak
祇
Selina
Gin2
libertytimes
koáⁿ
khun2
chhi5
260
##man
跔
瞧
宦
氰
tun
lok
bû
Ｂ
砉
ioh
Siau
LPGA
朽
峇
sek8
phiàn
new
kha3
飪
糰
NASA
921
chūn
榨
tham3
koe2
To7
雉
掰
慄
tiām
tah8
phín
椿
chiat
206
164
痊
燬
漾
noa7
chiau5
賂
栩
噩
倬
Ma
KiaN2
Hô
鉉
誅
erˋ
chām
磋
撳
pāi
chhioh
Be7
坷
ㄢ
so5
pin
My
E7
薏
璨
炯
婁
唾
DJ
320
説
擢
kia3
jiok
SARS
曦
扈
tiap
siang2
Khoàⁿ
Jolin
骼
緞
弼
##ra
鏘
剉
toè
201
Ni5
Linux
1899
166
膛
ián
蓓
祉
湄
嗨
##H
餚
虬
徘
kang3
iá
羚
ní
Ui7
PlayStation
PK
Leng5
叩
厘
203
##is
焊
toaⁿ
hé
William
Teh
NO
舵
睫
un5
chhah
183
167
溱
Chris
3500
麴
蛟
lān
呷
chhng
﹞
焜
hóng
188
176
磳
said
po5
gui5
eb
choa2
172
摒
khòng
bong5
1896
171
161
竅
tí
1894
亟
呻
tai3
pin5
bê
Lim5
蟑
糝
thóng
chhài
Kevin
BONG
徊
kòng
##U
糠
䆀
hiu
High
翎
婢
thiam2
pou2
chhai7
205
泵
岫
喵
hun2
##um
烙
嗓
刨
thê
ian2
chhai3
Sū
Super
Pún
蝸
喆
体
lun2
Kiám
饑
簇
洎
huī
Lâu
鈂
贌
祂
濺
妾
ui2
hat
𤸁
蜢
稟
琥
peN5
giong2
輟
榛
桔
seng2
Oh
蕹
ou5
ak
Thomas
173
齧
茸
pok
174
汲
懺
巔
嫡
not
mi7
Lam5
ＮＣＣ
khoa3
has
School
182
捎
up
poe3
𨃰
﹝
裳
α
î
Tong
Le
摝
妞
v
ia5
ham
Ho
195
##ia
曳
搝
悸
忻
嬉
勺
tong2
鎧
歎
kheng2
khai3
chah
灝
拙
hiam5
Seng
闕
蛻
瓏
奄
270
1885
𢱤
璧
儷
Ban7
##na
瞌
痰
chhiu
178
珈
浬
thèng
oe
kiok8
giu2
1890
梟
忝
嶇
sam5
choáⁿ
Group
頤
mˇ
H1N1
Bêng
𢫦
tio5
giâm
賬
筑
鯽
炬
thoaN3
hi7
giˋ
chân
Chong
211
襟
箇
礱
兀
khún
孽
uí
tin
siak
chan3
al
650
隴
錨
扔
soán
siiˋ
Mac
Chhut
550
chhò
TLPA
Kui
鈾
逍
sàn
sam2
208
Ｋ
軋
嫖
soh
鎬
笙
ts
poē
頜
tau5
taN7
lông
Peter
Dr
餉
poa
hán
chû
##te
蛀
蓆
翟
氓
攙
撚
寰
ut
pho7
koài
hiâm
choá
Thau5
SOGO
177
醢
醞
粱
oat
hiông
hip
bia
National
##f
餌
慼
廝
侏
siuⁿ
liam
khim5
but
bi5
蹺
hun3
Sony
舀
toan
one
chhih
Rod
##ne
am7
Kiu5
瘍
guî
chhó
GPS
螞
拷
pan2
Me
212
鵜
殃
を
ong2
hiòng
Go
蹦
緹
khài
hou5
TiuN2
Lo
191
1100
鯓
亢
丕
祁
tim3
nginˇ
moē
du
202
蛾
猷
殆
lo3
鋰
氾
愣
doˋ
OS
192
1700
喋
siu5
chio3
WTO
ECFA
204
187
鰲
霈
苟
瞪
埽
Sit8
City
閏
鎳
iuN2
GO
186
ㄚ
boah
Ui3
Saint
Kám
193
鋅
佰
kiu
絹
噍
冇
兢
tsoè
pa2
ha5
chhoe
Yahoo
Tok8
Sai
Music
Hut
遑
蝨
thi5
soé
lih
頹
醛
慍
凋
##ion
硯
喫
toàn
suah
kheng
Unicode
渤
泮
tīn
m2
long3
chhau3
199
198
179
琮
target
tak
phang5
Pro
Ou
腱
idˋ
Keng
225
khou3
181
錠
躡
皖
畸
暹
chhiuN5
Siu3
荼
tù
phó
釔
pong7
EP
ABC
鹵
迹
荖
汞
嗒
teng3
ngiauh8
kìm
Park
POJ
Ma7
酰
奚
に
phoaN7
kán
chàn
chháu
Lia
Air
196
0800
杞
忱
y
so3
siáu
seng7
kau7
da
blank
Thoan5
Peh
330
鶘
迌
蜿
thng3
jū
209
鷥
out
my
1880
蚌
莢
泠
揤
嚥
bai5
Sió
1892
184
戮
唔
pat
mo
hong2
u5
niau
boa5
Thài
380
2021
鸞
邯
莘
瞰
thiau7
lou2
IBM
鑣
膺
β
gong5
chhiaN3
We
Kam
餒
蚤
SM
Pi
NB
Long2
Lai5
娼
lian3
lau2
Stephen
錡
khoa
chiòng
Lin
籟
撾
倭
189
睪
岬
khàm
螃
殭
囓
啜
ô
Star
213
鑪
啪
sau3
phoe5
loan2
chai2
UA
Sun
Sa
2330
酚
糗
tham
YouBike
311
207
##Y
鈦
Kiáⁿ
Goān
︱
頕
can
Microsoft
Lek
Chi3
遁
謨
tâm
thai
koà
dabˋ
Pò
隅
sû
hang5
Mr
IV
Chinese
194
1860
譙
渲
勼
Hu7
𤐙
蒨
箴
will
Youtube
Team
褶
穹
涕
櫚
sun2
gi
chou7
chiong5
Lee
737
鼬
thaⁿ
nai
In3
Eng7
BOT
抉
hòng
驊
递
訕
pì
chhéng
chhong
biau7
﹪
跎
泗
thang5
jip
Hian7
FB
CEO
舔
祟
lám
im5
bin
Choè
嬪
this
sia5
nenˇ
Type
E5
ATP
1889
漉
揬
thiu
poeh
Hia
AIT
硅
彝
toan7
mô
khoá
Sòng
Pe
News
KiN3
DC
訛
岌
孰
oàn
gōng
Hello
CPR
Bān
1886
趒
憊
啃
daˋ
chhâ
Galaxy
2025
黔
蜈
傀
pa3
玖
tháu
kiN5
Man
Big
##or
詬
樽
棣
kiam3
ebˋ
TVB
𤆬
揜
挶
giˊ
chhiang5
恃
埼
鱈
狽
悖
ㄧ
ngou7
iOS
biō
Richard
Max
艮
儡
siong3
chhiok
Choe3
480
熾
撂
puh
koé
Sù
IT
蹭
ㄟ
tun3
ISO
Ella
County
4500
癇
玠
淞
poè
phoàⁿ
phou2
chōng
che2
Hak8
醣
舐
壕
tse
phong3
khiau
LG
Hoa
G20
霓
甌
汴
掐
憚
嗹
}
tî
tau7
siù
pêⁿ
Lāu
Ｃ
矸
瓠
tim5
phi3
khin5
khia5
Hó
1887
1870
##ⁿ
韭
錚
琇
{
gunˋ
chih8
au
ETF
CP
215
214
辟
蟒
祛
song
kham2
hioh8
chho2
au5
罄
捾
嚎
chhak8
York
Thai3
LV
Kou2
222
佣
Charles
龕
嘍
喳
301
鴞
躋
衚
衕
怯
sia
pheng7
nâ
Tsit
Khun
pâng
餿
鍬
灸
塾
men
lū
khoà
iúⁿ
Adobe
2300
216
1888
1864
賒
箔
孢
phiN7
hiuⁿ
ché
Chu
##ta
鰓
蚯
汾
were
lui2
Sio
Sin3
##w
óng
tiō
lām
chiân
chhám
IMF
鱉
餾
銖
貂
膈
瓔
崧
堊
唚
俺
meuˋ
chhian5
Pay
Inc
365
躊
敕
撬
忡
û
âng
thàm
tau2
phe
nāi
gū
Tú
235
1865
1861
酗
莿
lu7
huí
NGC
鎌
糴
tsai
thiau
Game
221
覷
滌
tèng
ta2
man
log
ThiaN
Smith
Ng5
Kun
All
麩
沽
sang
long7
lioh8
Hawaii
APEC
1850
##v
梢
咆
sēng
moe7
all
1893
Ｐ
閎
躇
矇
璀
暐
siâng
khia
chiuN
Kang
Al
##ch
霰
抔
r
ia3
MSCI
911
##ar
蚣
犖
姮
sap
iau7
TiuN
Kitty
Hek
Chiap
197
臧
枇
phiⁿ
loh
Lah8
咭
toāⁿ
soeh
Hàn
Chi2
217
痢
伎
mai2
FOX
Andrew
鷲
訶
蒿
琶
烴
桀
噢
tióng
liau
choaN5
Te
Kobe
Intel
Co
Center
290
218
1871
烽
攉
pho3
King
601
Life
骿
産
熹
嫉
堇
lin3
iâ
chiN3
bak
LAKIKI
Jean
Anthony
釉
〜
Bú
3600
226
tsoē
toe5
chhiN2
Xbox
Scott
譫
吝
丫
they
their
hoai5
fa
boan2
Tō
Peng5
貽
瓩
珂
搉
揶
恫
屜
啖
ju5
guá
chong7
bî
American
420
223
mien
me7
Kó
Eng2
掊
呸
冲
joā
jiau2
hî
焱
thi2
phò
phiah
did
boán
TPP
Ngá
Johnson
ELEVEN
﹙
闔
枴
pîn
han
chiâu
chhî
F1
Day
2400
##el
不
薺
唏
Ē
tiong2
piáⁿ
moa5
竵
櫂
搔
仃
tiok
Williams
Ui
Saⁿ
##la
##ic
Ｑ
逵
覲
羔
繭
凜
kiáu
chui
MP
Liân
Joe
3G
孀
冉
亍
pán
phu2
loán
high
choā
Bîn
##re
﹚
腋
恪
塍
ouN3
gmail
Tha
Steve
Show
BB
1891
﹖
桍
tài
Thong
ChiuN
鎚
lún
hì
eN
AC
鱂
砷
凃
pu7
Hu
Girls
2022
1884
hah8
chau3
Pho
Green
loān
House
Asia
Alex
鄺
鄲
衞
phok8
oo
MTV
1873
謾
烊
tio7
sin7
e2
bio7
Tom
Martin
鰗
鞘
甑
燜
熠
楞
搧
phe5
peng7
SK
OPEC
Iah8
Hēng
850
1840
饕
苷
who
siann2
gu7
VS
SiaN2
Dior
Daniel
釧
揄
戟
垢
ㄇ
オ
pn
jú
i7
Club
CPU
1863
##ka
萣
舷
竺
瘧
圻
嗡
′
phiN
hâng
Hoe
Bank
蒞
瞇
癥
put8
chiN
St
觜
夸
logˋ
khiu2
hoāi
藜
拮
唬
hiˋ
chim2
been
Ke
鏍
筵
滔
枷
吒
rhid
oe5
more
chiáu
beh8
Ek
祚
櫸
楯
‹
khoann3
family
FBI
219
1A
逅
衊
瀟
咑
劭
pe5
boâ
Iûⁿ
Eric
khoan5
khian5
Kek
矗
仆
ziiˋ
thiat
kàng
gûn
giâ
gian2
Red
1875
1868
黜
陛
覬
絳
焗
geng5
Hong5
Chhun
Boe7
羥
絢
碓
俾
tshuā
nowiki
Tit
THE
KD
FC
College
2200
３
搥
嬴
冪
siang5
kûn
denˋ
VIP
Ti
Lu2
AT
邂
簸
婥
塹
sòng
góa
chian5
chhn
bín
Peh8
Kat
Chiu
224
蘚
葳
と
tiāu
choann2
榖
帚
haiN3
340
001
纍
z
pui5
line
Phah
Chu7
232
２
鏤
茗
寥
she
biāu
Pian7
Gou5
Chuí
227
鉑
覦
燁
捶
恣
Sim2
Louis
318
鱔
浣
叱
tiN7
haˊ
430
１
恅
屐
mä
ko5
chhu
BRT
310
硞
楔
咇
piàⁿ
On
Nng7
Kóng
CNBC
苻
玗
戍
thong3
ngiah8
ngia
kou5
Cheng
隼
獾
thui
hû
choan2
Ctrl
Bó
Ben
𨑨
鬞
疚
猖
沅
恙
ㄋ
phoè
email
chiN2
Time
Gī
Chiang
1876
稷
煊
kuī
j
hiâⁿ
驥
鉻
叼
nng2
kioh
hian
Khi2
CBS
245
##ce
蠣
涇
phêng
phoe3
moˇ
Plus
Gun2
2A
1867
迥
篡
瞿
泄
梔
擸
僉
mài
chou
chhoan5
TGB
謁
碉
惦
孃
ト
tou3
over
jím
háu
Taipei
KiaN5
239
頇
蹋
潼
tuh
thàu
phō
khip
dab
Goa7
Davis
蔑
菝
洙
lang
her
had
chuī
TPK
Bu2
2317
𤊶
颺
淦
niâ
laˊ
chiang2
NBC
鵰
褚
菠
伕
丐
mui5
iam7
giâu
baiˋ
Sou
Le2
AR
7500
370
＊
騏
韜
綉
tiâⁿ
Un
Netflix
Lau5
HBL
Entertainment
1250
袒
笥
巳
tho
chhân
##ma
##de
眵
sám
chiông
Van
濠
攘
khoân
joah8
SiuN7
Lī
Lian5
Kò
4K
275
##J
##se
##ry
薈
肽
絚
漣
娣
tîm
niā
khoan
giaˊ
Power
999
Ｘ
簍
濂
捅
咘
俋
now
iô
iN5
Thâu
KY
Ap
2600
誆
橐
戕
ve
siám
Young
System
Jī
Hông
##os
𤐰
ûn
we
tshit
time
miˊ
koai
chhi
Tony
QR
##10
##ya
Ｔ
惋
が
à
phio3
loē
loan5
koiˋ
goˇ
Wii
Christian
231
##as
｣
馭
諦
蛄
藕
癬
淩
庾
suiˋ
kam3
chiap8
chhâi
IPO
Don
Beng5
1848
髦
辮
煨
掞
卹
siau5
Street
MERS
Koa
Be
950
241
茁
硼
椪
嘬
佚
は
soá
fungˇ
choán
Lady
漓
屘
仄
Ê
teuˋ
louh
United
Jr
洄
梹
惺
which
tiu7
niau2
khoaN
fun
after
Po
Khiok
Ia
Chó
1883
1874
##et
溴
暄
拑
ˇ
tih8
than
tan5
sim7
Free
Code
孺
ziˋ
kē
km
Party
HK
Goan5
256
234
﹐
憬
䘆
peng3
Black
990
姝
taiˋ
pai
liauˊ
lian
kä
iaN7
giogˋ
chiò
YES
Pun2
Note
Lim
De
238
##mm
４
頡
薍
搽
捀
噳
tshuä
tioh
mug
lî
lian2
gaˇ
chhiùⁿ
Watch
USB
Do
Chui2
401
299
229
1878
##Z
鳶
瀞
捻
phiN3
leng
ge5
di
Tim
Tan3
Chèng
2100
骰
諍
誥
苣
媲
houN3
Reader
PhaiN2
Formosa
##ie
year
oaN2
gaˊ
Ryan
KBS
580
1832
瑀
ò
u2
tāu
tùi
tu3
bo7
Jason
##é
鮋
鉗
遛
滙
バイ
tien
ngienˇ
en
For
Brown
236
颳
荀
脛
璉
犒
牴
湮
ㄅ
chhèng
Store
SPA
Chá
Cho3
680
閕
蜞
斛
弭
弋
people
Play
Joseph
Hou2
CH
Blue
##son
ＢＲＴ
璐
tiu2
foˋ
The5
Su3
Global
##ge
##da
霉
藷
燼
奘
唁
shi
lih8
châng
Web
Research
Lut8
LeBron
1879
釦
槐
曇
媸
ú
ban
Che3
麾
鎔
漦
歆
toé
tiū
seˋ
hau
hang
fan
choa5
Song3
Siong
Chhit
Adam
747
269
1882
##st
沱
tsa
ngin
iù
heng3
Tan
Matt
Hū
265
233
５
銹
蜴
絪
痞
siāu
nī
chhai5
Best
440
255
1877
慚
圝
僫
siuN3
maˇ
kong5
koaiⁿ
its
chiàm
Project
LCD
499
蘸
爌
刈
o3
beng2
XX
Rock
390
1872
##to
##th
０
獗
晧
搪
噱
tǹg
ouh
ou3
nge7
ng5
bian7
Open
Goân
Gio
Andy
777
粧
嶋
me2
gang7
chiann5
Jack
Hoan
HiaN
Gi7
Bunun
Bill
Alexander
501
1853
##ve
銑
綯
皿
嗦
tiok8
tiaN5
rhiu
pong3
lê
kiN
khòaⁿ
PCB
Ku7
Jim
Home
Hoa5
熏
桮
oān
kut8
hiau
ban2
Tām
Media
Lah
Choan5
Chhòng
AMD
##ers
軂
腆
炤
沌
sún
sa3
ngien
jih
chui3
US
Roger
Nî
Chū
2030
##ˋ
｢
腈
牒
瀧
ōe
tuè
sīm
pū
nau2
love
hoâ
about
This
Cha2
骯
諶
翩
煬
澗
渟
揍
徼
噯
却
thâng
ded
West
Giok8
閬
醚
迵
轅
吓
your
tsūn
taN3
chheⁿ
Lé
Girl
Boy
雹
贅
氦
妗
䯋
lâ
kún
kng2
khàu
Thiaⁿ
Henry
＆
來
鰕
晦
嫦
㘔
chang
Tiuⁿ
Mobile
Chiok
1866
##tion
跼
衢
硩
Justin
Fi
246
##rs
ＦＴＡ
雋
糬
墀
pá
phiat
pe2
lou
khiân
iat8
Wi
Jose
Gucci
1881
10000
鈐
萼
芊
桅
娑
ūi
phì
lau3
kiap
gē
facebook
bid
ah8
Si2
Pit
MS
Japan
B1
410
##の
##ton
韃
蟳
粕
濘
歿
tsē
lu5
hōe
hiap8
ge7
Model
Kou
Koe3
888
540
##q
##ey
迢
妊
nai7
hiN7
ham5
go7
Siok
QE
Juan
Janet
齬
靦
拎
戡
phû
lai
kiān
fung
Jian5
Jackson
巽
屹
theh
mouh
mini
RNA
Kì
Java
Hill
BIGBANG
A1
##ki
蜻
篆
稔
湍
von
tiân
q
ng2
net
lōng
into
fu
chím
chiaN2
\\
SaN
PS
Maria
Liap8
Iú
IuN5
Hoan7
Dream
319
237
跺
藺
漩
湢
摹
忿
兗
na3
mau7
hoˋ
he5
goˋ
Mai3
LTNTALK
Junior
Hall
1830
驍
輓
詰
紜
White
Ng3
Jordan
Cheng5
CBA
2800
##ri
鄞
殗
幡
妲
tian5
chàu
WHA
Tông
State
325
2700
謔
漱
埗
kuh
doˊ
chiau
WTA
Siok8
Chham
Art
##Q
##ン
靼
銨
詏
蚓
腮
㬹
tsāi
tienˊ
phak8
ong
khu7
khian
gêng
Marc
Jones
Iu7
ID
Chai7
A3
333
鈷
彳
幀
峎
tōa
tán
sian2
pun3
láu
kh
kak8
Siong5
CC
720
701
007
##nt
姣
tshih
tiānn
koān
Sports
Kian
460
##ine
鰈
醯
紊
箋
炣
戽
tin5
phiaN
Road
Office
LIVE
Institute
Hoē
Association
285
##ur
𠕇
ＢＯＴ
蜓
蕒
拺
懾
when
sadˋ
luh
höo
gai7
co
bidˋ
Tè
Lêng
Iah
Ba
##ro
韆
皈
痣
曄
phoāⁿ
loˇ
giˇ
eh8
choah
Oe7
399
274
##ˊ
##nn
鞦
縷
琨
捙
thò
nung
koāⁿ
gin
H7N9
Brian
264
249
1869
麝
贍
諳
綬
稼
枸
擗
据
悌
侑
Ò
pu3
lag
htm
chiam3
Samsung
Nick
Kheh
IN
660
##ni
魘
踜
蜊
俳
siid
chiaN
ONE
Io
Chiah8
243
1858
髖
嗬
剾
ㄆ
song2
off
chian2
báng
Uí
Sí
560
##ス
蹊
薊
膊
禺
kaⁿ
eˊ
bang2
470
炕
嗲
koâⁿ
iāu
hoa7
UTC
Ti3
OLED
KiaN
EXO
Chan
1857
Ｖ
迂
誨
琰
sang2
phaiN7
nng3
m3
lui5
khîn
bông
SUPER
SBS
Rose
NG
MLB
LTE
Games
Frank
630
3200
ＷＴＯ
鎰
鄴
娠
吁
tho3
tauh
iTunes
coi
chhàu
River
PMI
Lân
248
1859
閑
紘
like
lau
jiám
ch
Christine
Chin3
258
1820
##no
躂
爁
poâⁿ
khéng
chhang
Tsú
Island
244
1851
鏗
轆
莆
慫
弩
u3
thn
phih8
mugˋ
kiaN3
khûn
khiN5
Miss
Chí
Chng
醺
躉
葷
羯
箝
圜
咿
丰
pheng5
kiˋ
hòa
hiân
Nokia
Ltd
JYP
Curry
Chāi
823
801
鋏
潞
惇
siunn
ref
Oricon
Oan5
MIT
London
Bin5
B2
##ck
謄
蟎
熒
撃
啐
丶
iong
hoāⁿ
ham3
Siông
Lan5
Kiû
Ken
Kah
Ji7
鏖
踞
蘑
汎
愜
sńg
iam3
chian7
Thê
Loē
570
262
##it
譎
螫
羲
慟
zungˊ
tùn
lat
lagˋ
khiau2
chhiúⁿ
Channel
A4
6500
315
##j
鯧
魍
諉
滂
湃
浹
泔
汫
柺
揰
喌
thaN
pô
ph
jû
jiu5
iām
Touch
Seng5
QQ
Li
Ke3
Hiong
FTA
530
295
286
276
##li
##ke
錕
痙
怵
廍
娓
呦
㸐
tsò
sâm
oaN3
khè
hak
Studio
Khé
AB
A7
277
##ll
##ity
閡
撋
幔
pian
business
Téng
Te3
Freddy
590
247
##ko
鯖
駙
藪
涸
峪
婪
vo
poah
longˋ
lap
boai3
Mary
Chen
1852
##20
##ation
靳
詣
惚
tshuē
qiangˊ
phi2
gaˋ
faˊ
che5
Times
Si5
Mini
MOD
Lâi
Lisa
Khí
JJ
Hu2
Flash
ETtoday
268
##ル
魨
蠔
嫣
奬
tâu
ngaiˇ
iuˇ
Siu
North
Albert
254
2498
242
1855
##va
ＩＭＦ
＃
襖
澇
榭
噤
ziuˋ
van
tá
suà
Tì
SOP
MBC
Gō
880
298
261
1845
澧
嫚
thiàu
mou
loiˇ
lang3
iap
chhiuN
NCAA
Church
Chip
Am3
305
1833
##ty
輦
蹧
蠵
菣
朕
帷
侗
yes123
two
thou3
phui3
phaN3
ngia5
lauh8
chòe
banˋ
au3
South
Lek8
Lai7
CPI
490
288
252
齦
髏
顢
釵
簫
淖
俟
㔇
ân
zioˋ
w
tiat
ing
iN2
Patrick
Karl
IKEA
Gary
Company
583
302
2K
251
##11
##ley
緘
笆
捱
嗇
oe3
lan
khoat
hâm
Siū
Good
Antonio
266
##un
﹑
狀
鬨
瀘
濮
䈪
tóng
iann2
chhou2
cha3
Toa3
Royal
Rain
ING
Chhoa7
AK
787
323
𤌍
啵
uá
iâm
chhun5
biān
XP
Teng2
N3
Metacritic
Happy
GT
El
Donald
292
##ter
##land
羧
篼
燄
巍
咦
偆
俑
䀯
tān
taiˊ
sàu
shin
moai7
kāng
kogˋ
et
chī
chhoan2
Tiam3
Russell
Pêng
Namaka
Muî
MAX
KANO
Internet
Grand
Eńg
Choân
375
3008
1849
鰱
眈
夆
嗑
吡
〇
siap8
oˇ
ká
khiat
duˋ
chud
Siu7
Hoe7
Bi
Amazon
519
278
271
翱
type
sog
old
liu2
le3
gian3
canˋ
cabˋ
Tiffany
Sky
M2
Limited
LOGO
Khe
356
308
273
袞
璿
憧
崢
táu
tàⁿ
guˋ
faˋ
chun3
chhiam
Up
U18
Top
OL
Boán
Boh8
Bar
Act
1854
膾
耦
縉
橇
柩
旎
sián
sann
hai
gâi
Thompson
Taiwanese
Sî
Soat
HBO
345
1835
𥯥
椆
嘏
佫
ziˇ
vongˇ
sam3
poe2
phe3
guaiˊ
cham2
back
Kolas
FIFA
Boē
960
640
1815
0000
荏
皋
煏
毘
憎
愫
恿
弒
姵
thi
iN
gungˊ
giang
chhiàⁿ
beˇ
Summer
Pai3
Makiyo
LOVE
Kha
Hun
610
510
324
303
287
267
鷝
蝗
菓
濡
欶
嘈
オートバイ
siiˇ
giong7
Ui2
Science
May
Let
LGBT
Khong2
Jeff
Im
Chap8
Bryant
摑
Ⅱ
ōng
thuh
th
piak
kiong2
khun5
des
chng5
NC
Kyle
Khek
Babuja
346
313
2023
篠
滸
淄
堺
àⁿ
youtube
sīn
sur
siah8
qiugˋ
never
lang7
kâng
kaN3
div
bud
biagˋ
Sêng
Ki3
First
Chi7
Bob
355
306
ＤＩＹ
蟈
瞥
櫟
嗷
lióng
lid
liang5
khîm
Siau3
SMAP
KID
Carlos
335
312
##ca
##at
偃
toâⁿ
shidˋ
ngiab
liap
joa
ià
chám
chi5
chhíⁿ
Trump
Khóng
Khi3
Edward
Chhu3
Capital
321
279
𠗻
鶚
頦
霏
燿
淀
喺
tiuh
tiu5
than2
siinˇ
lou3
hiā
down
Phó
Nike
Josh
Gín
Gou7
Dan
304
253
1856
##50
##co
訐
浜
娩
傣
thah
siongˋ
ngiabˋ
ngaˇ
moa
koan7
first
chiN7
chah8
Tse
NET
GNU
FDA
En
901
1789
##sa
骷
鋌
眞
獺
殕
懵
怫
亙
voˋ
gongˋ
choan7
chau
app
Song
Gau5
Awards
342
307
263
遰
衿
茭
疺
vu
siunn7
phang2
moe
miauˋ
looh
khám
iPod
haˋ
google
giok8
call
TWICE
Si3
SU
Muí
MSN
Logo
Khia7
1847
##ha
邋
い
tam3
pangˋ
ngi7
miˇ
jiû
gông
bek8
Legacy
General
America
840
##ai
鴕
譀
珣
噼
匕
tö
siòng
show
kio5
chak
TBS
FM
Baby
API
8500
##ner
##me
ＴＰＰ
＂
詡
詆
淼
泯
奐
噎
tân
pH
doˇ
Ross
Howard
Harry
DH
802
620
5500
316
294
257
鎘
轂
舢
櫛
徠
叻
zii
would
thun2
thng5
thiam
ltn
choâ
chhih8
Radio
MOU
Kè
Khu
Han
Chêng
Chim
Allen
329
293
281
272
𠢕
８
齖
銫
褂
罟
皰
掄
world
sad
phi
ma3
kuân
kióng
khap8
giog
cudˋ
Union
Pài
KUSO
820
1841
莪
羣
簞
窖
燶
潁
榷
刜
㧒
‰
pio2
khiâ
ian3
chhang3
also
YG
WiFi
TĒ
Ouh
NFL
ICE
Go5
599
踉
浯
恂
匏
po7
hī
gieuˋ
der
day
chhìn
bui
Sir
Mi
361
334
2454
##ー
餞
隈
軛
煇
濰
tshuah
nga
longˇ
koaiN2
hakkadict
eh
deu
chiaⁿ
Nn
Latvia
Hotel
Aih
518
259
##る
##mi
##ment
馞
讖
螯
爲
壠
僭
today
phâng
lut
home
hah
What
NGO
Liu5
Little
Business
Ang5
3800
336
291
284
##que
##km
襬
tsông
thoàⁿ
lun3
la7
kien
chhiaN5
U21
Soah
Pan
Obama
DS
670
385
357
22K
##au
阡
窈
毌
楂
咍
‥
phang7
life
cho2
Sit
PG
Na
English
Chhiu
ChhiN
Burberry
1844
1831
邃
蟀
氈
扚
憋
tín
thí
thiám
sangˊ
phoe2
other
gongˊ
chhiau5
VI
Post
Paris
Ngô
Network
HIGH
God
309
1812
1125
##der
謐
蟋
紂
糶
疸
懦
彆
囍
伃
tiN
sim3
php
hiang2
hedˋ
cu
Thó
She
Long
Angelababy
525
347
悾
嘀
zuˋ
tut8
khe3
kauh
jiáu
Taylor
Mui2
But
486
##ler
##am
鐐
纓
焿
焄
擰
phou
onlyinclude
ngiâ
lû
iam5
chhoh
chhio7
chheN2
aiN7
POP
Opera
OH
Ka2
Ian
F4
Choe7
BBS
980
5A
338
282
##と
##ˇ
璜
熵
敝
悻
傪
伉
㐁
tõh
rhidˊ
phoê
phau3
gê
Records
PChome
Hak
Festival
East
Cup
Bō
8K
2409
##12
##Ａ
##io
６
鱟
錳
畑
猾
tiann7
saN2
līn
khèng
khoo
huah
hou2
boat8
War
SS
SONY
Pîn
OU
Le7
Key
Jon
Hoān
Hai2
618
317
##ON
##ER
ＬＥＤ
鱒
鐲
曷
thng
samˊ
chông
chiù
chiuN5
SpeXial
Smart
Pang
PGA
Jimmy
Hù
BMI
830
4800
##ti
縝
緗
甬
坳
sui7
piang
khuè
im3
giú
buē
Society
Kou3
Kian3
Gordon
Gogoro
Gi5
ECB
Anderson
322
##sh
閤
邇
軁
蹂
瓢
煦
憔
岷
塱
内
ziiˊ
there
language
haiN
choah8
bad
USS
SJ
SIM
Phêⁿ
Online
Lou5
Kui2
332
314
296
##ga
##do
車
踵
筐
瘩
熨
晞
咨
years
too
tienˇ
péng
khiam7
dongˇ
bang5
Phi3
OVA
Daily
ACT
589
2D
1846
1821
##ian
亂
軾
疙
珪
tiN5
td
suˋ
piˇ
làng
ll
kian7
if
gu
class
ciang
Soe3
Siu2
Lāi
760
607
517
366
363
1843
##id
敧
幷
嚏
劖
儸
îⁿ
web
vuˊ
sô
piang3
meh
lam
kô
hin7
gun
didˋ
Tai
Seng2
Press
Out
Liong5
League
G7
Chiau
Aaron
1839
##berg
鼾
鴒
膁
癩
淬
γ
name
gan2
chat8
Truku
Ray
Prince
NT
Hái
GUNDAM
Fire
Core
AP
740
542
359
352
3300
1814
ＣＮＮ
鄔
泫
宓
way
tìm
tiong5
thòng
loˋ
iaˊ
People
Matsuta
M503
Chín
Carl
Ali
790
297
##Ｃ
銻
蟠
缶
瞼
盂
琺
煖
吭
り
nńg
mienˇ
liuˋ
khiN
gauˋ
gau
eTag
chhāi
SoaN
ROC
Pou3
Les
Kiaⁿ
Is
GE
Chhoe7
Chhan5
Che7
Award
Ang
AA
522
343
289
##に
##ous
##ble
誚
犢
楹
摀
僖
し
Ì
thçh
siah
mm
Pat
NAND
LA
IUCN
Hōng
Hāu
Hebe
Heart
Gong7
CCTV
British
581
358
351
##40
##ns
鬣
躼
熇
墉
嗙
啶
Âng
thî
songˊ
sau
phèng
ngib
kid
khe2
hian5
han5
chau5
bâi
YouTuber
Will
Walker
Sím
Service
Ku
Hoê
FUN
Anna
432
405
388
368
283
##tic
##ps
##ji
##ba
詫
薟
舫
炔
溧
旒
嬅
で
width
pòng
mienˋ
kng3
kan3
jiam2
gio
chn
Wade
VII
Suī
Simon
Khou2
Kama
Journal
HIV
Express
Data
Chhui
Bou2
780
354
327
2024
1836
##ay
ＡＰＥＣ
齪
熻
摳
忤
卞
乂
μ
voi
va
tãk
thang2
pu5
kiedˋ
hê
hou3
badˋ
Under
TeN7
Sia7
Night
Mk
Koe
Digital
Design
C1
Bak8
612
1838
1825
酈
迸
脩
瘸
孑
嘸
Á
xi
tung
tsih
ta3
ngō
kàm
khiau3
khap
enˊ
deh
chhōa
chem
cab
Toh
Technology
Lulu
Kavalan
Holo
Durant
Duncan
Dcard
Chiam
Battle
860
606
576
326
蜷
硒
忑
忐
system
only
khui2
hâ
hm5
gab
ed
boa
Soa3
Server
RS
Grace
Chio
AM
341
燾
殮
曚
夙
唊
双
tãuh
tshun
pîng
náu
laˋ
ibon
duiˋ
chia3
chhai
Wilson
Steven
Hêng
Christopher
Brandon
625
426
425
383
328
##が
##ling
##go
鍥
遨
siap
shiˋ
niu7
kiang
khé
khiām
iãh
good
ginˋ
Turbo
Tour
Sea
SA
Lewis
Jip8
Gâu
Chìn
Chai
633
435
##ive
黝
飴
飭
蛺
胐
罈
歳
屻
ㄍ
Án
zu
us
toˇ
tiuN3
thek
ten
ta5
sun3
son
ppm
phēng
most
loe7
khoan3
jiu
group
chhián
Sò
Siàu
SD
Pierre
KDL
Gû
Central
Bay
1819
1662
蜱
蕈
蓼
罌
晁
摜
Ⅰ
tedˋ
phun
khū
kg
hanˇ
hai5
coˋ
could
chià
bogˋ
XD
Siāng
Raoul
MC
Káng
Koàn
Hot
Chò
395
369
337
1837
##き
顥
籣
盥
渙
涮
槃
戛
sunˇ
sip
shinˇ
re
poˇ
pinn
ngoiˇ
māi
just
hoˇ
gāi
guán
bōe
Style
Prada
Jeremy
How
CO
AMOLED
831
767
730
353
##ト
##ze
##ts
##ir
##ah
驃
訖
茛
膦
笭
痔
璣
珩
扞
屌
婞
几
π
tuà
some
siâ
kiánn
kheng5
kau5
in7
hiˇ
code
chhiang3
chha2
ca
bunˋ
Your
Thiam
Siù
Queen
PR
Of
Miller
Magazine
Iu2
ISBN
Harden
928
386
371
##ol
##ies
鶩
鎵
鍘
鈀
豊
舨
笈
哖
咋
siau7
pèng
kio7
del
Thāi
Tek8
STAR
SNH48
Robinson
Kau
Ha7
Great
Can
BR
3K
384
364
362
酣
痍
怦
tiông
tiô
sian3
kheN
gib
city
chíⁿ
choaN
chhian2
Phone
Oat8
Now
Kin2
HP
742
523
404
𪐞
ＡＩＴ
鐙
蕁
箠
寐
姒
噠
work
tsham
qienˇ
our
ngiau
nai2
khiú
hia7
gong
deuˋ
Sport
SQL
Map
Lok8
Koè
428
372
331
##21
##za
##hi
軼
螳
窣
氹
栢
峒
剽
冢
ā
ximˊ
what
siû
nng5
liˋ
h³
died
ciangˇ
cc
boi
Yes
Video
Santa
Market
Liat8
Liam5
Kelly
Corporation
Call
CF
Bruce
Box
535
438
1650
##Ｓ
##one
##ja
##ier
錮
苡
羴
粼
涓
汊
朦
峴
唑
き
gien
chhip
ban5
Vista
Tān
Tng2
Keng2
ChaiN2
770
658
4200
339
##wa
##ism
##il
麋
鬢
韮
縊
朧
庹
吆
佅
tîn
tun5
pin2
pih
ou2
make
lidˋ
hio
gán
gogˋ
chia5
chhiân
Tam7
Po3
Master
Larry
Jay
Dragon
870
690
427
15000
ＷＨＯ
鯡
騁
蛹
絀
梆
嗃
咲
勐
仟
them
pōng
phiaN5
hiahN
gidˋ
chhi2
bun
Siā
Khan
Jerry
IU
HTML
Earth
ETC
ELVA
Balt
Alan
940
731
586
555
512
374
1792
1776
荻
渚
洵
喢
哂
呔
tsoe3
oa5
ngiamˇ
mī
may
kia7
get
blog
Steam
Pop
Phian
PA
Nah
Mo
CES
890
505
1842
1834
1824
1813
1807
##い
７
蜚
笱
窸
碴
燎
灞
漪
洮
杵
啷
僮
tìn
thin5
thah8
sçh
rhidˋ
lè
kahi
hoaiN5
dog
bit
States
Phoe
PP
Management
Luis
Kīn
EQ
ChiaN5
Bike
An3
Aa
AH
1805
##ard
##ang
ＩＳ
闇
鎗
蹴
藹
絜
砥
璩
ām
tu7
tiⁿ
siùⁿ
phīⁿ
ngang
khàn
gōa
chiⁿ
PoaN5
PVC
Lake
Kut
Just
Chhoa3
A8
920
575
455
349
1801
##ong
鴟
邰
訃
覃
疣
泱
shiu
oai
khim
diongˇ
chiuh
Wu
UP
TMZ
Space
Oa2
MD
Leo
Email
Clinton
Chhim
624
5K
476
453
403
2050
1823
##19
##り
##ff
##age
醴
芃
罨
疱
柒
捺
嚌
¡
tiong3
shirt
power
luˋ
kiau7
index
ci
bán
Tiâu
SUV
Pacific
O3
Marcus
MAN
IEEE
Francisco
FX
Angela
APG
597
506
465
348
18K
##RA
##OS
##ê
##able
詎
蔫
蒡
籐
睬
痧
疕
wa
three
phí
ngongˋ
ngibˋ
ngiam
lek
kàn
khiang
iau5
hún
choâⁿ
Vladimir
Thô
TDR
Pō
Production
OB
KMT
Hú
DM
Bē
Book
645
521
515
498
霑
鐫
薹
腑
璘
璁
潯
淅
涔
楻
嘮
thāⁿ
pè
nungˇ
ngiong
jíⁿ
hoˊ
hoo
found
chng2
Walter
Vuitton
U2
Se2
Rev
Phoaⁿ
Panasonic
PI
M3
Koà
Council
Cosplay
Choē
Chanel
Bo2
Bell
Adrian
970
1803
1750
##ó
##ss
##les
Ｄ
行
嚟
tsh
tiuN7
thǹg
ngi
made
guan
funˊ
dung
country
cai
Tsu2
Skype
Phì
Light
Land
Fox
Chhoà
And
After
ASP
A9
805
707
622
514
485
402
381
1802
1799
1770
##lin
Ｇ
頎
虢
羰
瞠
歙
旌
㨎
zhungˋ
piangˇ
oi
mou7
miˋ
leng3
house
XML
Toronto
Tong5
They
Sip8
Re
Price
OECD
Men
Marie
Khong
Jonathan
Gu5
Enviro
E3
DOS
Centre
A5
710
629
627
475
415
407
1809
1775
1450
037
##ā
數
鷸
邕
榫
孓
佘
zuˊ
study
sogˋ
mai
hui5
gid
cm
chhiòng
Uì
To3
That
RPG
Nicolas
Ló
HO
Gui7
Audi
431
344
##30
##18
##は
##ville
##nd
鸝
鑢
袈
蚜
揕
忸
媞
嗝
tsuí
tsiok
tiû
pê
mun
lián
ko7
kied
khuh
keh8
jiau5
goi
fo
diˊ
biau2
being
USA
Rick
RCA
MG149
ME
M1
Iam5
IGN
Heng
Coach
Chhiⁿ
As
675
582
452
443
ＣＰＩ
陲
燴
焯
焢
槤
抐
М
В
tsiâⁿ
ong7
liu3
left
kiàm
kamˋ
fungˋ
chan2
ce
Tommy
Kèng
IE
Force
AED
699
502
488
433
429
##80
##15
##た
饞
萵
紉
獒
燖
洱
桁
搤
ㄤ
take
siiˊ
saˇ
pag
lòng
liabˋ
chōe
au2
TAIWAN
Sunday
Republic
ROM
KO
AQI
A350
930
678
503
377
1817
1806
1644
魟
蛆
藔
苜
胳
耬
睢
殤
怹
墻
senn
puih8
phiò
liuˇ
khiong2
hab
don
diedˋ
Unix
TT
Say
SO
Pau
Not
NP
Moon
Kan2
Hiaⁿ
Harper
Gaga
Eng5
Am
7200
646
591
579
577
552
387
1829
1661
##ul
##ger
##ee
肄
琿
淯
涌
捝
圩
zo
xiongˋ
tsoe7
thui5
siann
senˋ
ngai
mē
madˋ
liˇ
koiˊ
khiuN
ji2
heu
end
din
chhoah8
chh
With
Tióng
Thak8
Special
PUB
Ou5
KCC
Francis
Fe
Energy
Ed
Children
822
666
595
411
378
1810
1780
##ker
##ad
𢼛
蚶
瓤
掮
啁
佾
ziuˇ
zhiˋ
very
tiòng
siˇ
party
ngá
jia2
houhN
Washington
Sì
SP
Q3
Lucas
Lithuania
Fun
Film
Erik
Dennis
CPTPP
Bian2
621
571
558
529
528
1804
1796
1592
1580
1050
##rt
##less
驤
糸
瓚
殞
thiāu
sed
niáu
nenˋ
nau
help
gunˊ
diau
chhiûⁿ
chham3
Yotaka
YA
Terry
TP
SHOW
Lē
KÀU
Hān
Health
Cook
Cháiⁿ
BL
AG
AD
748
632
616
406
3700
##sen
##ou
##ek
鶻
鉎
諂
蟯
姥
噌
嗍
啕
zh
vong
under
super
seˊ
seuˊ
pûn
lìn
linˇ
heˇ
chiān
biag
Win
Switch
Series
Rafael
Phil
Language
Korea
Ford
Family
European
Chhui3
817
676
605
588
584
422
391
1818
1808
1795
1793
1645
1280
002
##33
##17
##16
##si
ＩＣ
閂
鈸
菖
艏
㕸
か
while
tin3
siánn
phek
liong2
last
khong7
hiam3
hiah8
hiN3
choann
chhiu5
chhio
adidas
Ti2
There
TOP
RF
Morgan
Mario
Khap
Ju
Jan
JAPAN
Gî
Chun
Báng
910
875
603
596
585
554
516
508
448
412
398
392
1822
##13
##á
##ny
##ness
Ｍ
鉚
蹌
燊
濯
挱
孛
勦
watched
tàm
sóng
pù
phàu
noā
ngong
kòe
hīn
gongˇ
eⁿ
before
Toe7
Square
Soà
Philip
Peng
Murray
LMJ
EC
Doris
Clark
CIA
Bridge
BC
ATR
AAA
672
644
483
451
424
376
##ue
##lla
𢳆
＿
Ｅ
鐳
豌
裟
袪
皎
玆
澍
泧
唌
卬
women
tiaN2
shun
sanˊ
phê
ped
māu
la3
chhiong3
bai
Visual
Thou2
Real
PU
MH370
Kang7
Committee
Comic
Andre
810
626
5800
379
367
1790
##AN
##70
##24
##を
##か
##ut
##rd
ＯＫ
鰡
薨
紇
簪
礡
瞋
疝
琚
柢
晗
攎
㼓
yahoo
toeh
thiann
mad
logo
lamˇ
kiann5
hiu3
gâ
dunˋ
chhim2
boils
Victor
Tu
Thiàⁿ
Ngó
Matthew
LGD
Keng3
Index
ICAO
Hoâ
Full
Canada
ARM
784
504
439
1828
1350
##Ｐ
##Ｂ
##ana
齷
麂
鮊
闍
閭
鎢
虯
瑠
熡
滎
嶸
夔
堉
啓
»
zhungˇ
through
thaN2
shuiˊ
pé
phit
mu
kudˋ
goˊ
chiáⁿ
Wang
Vive
UNIQLO
Tīⁿ
Tiàm
Station
S3
Over
IMAX
Firefox
CHA
Bus
Armani
AN
688
594
556
456
408
382
##ˆ
##ppm
##nce
##ate
##ae
鼔
鐺
釩
謳
虫
莧
茴
灤
杳
冼
ù
zogˋ
un3
tun2
tsiâu
tiam
set
píng
laˇ
kiuN
khiàn
html
game
dong
Xperia
Tiōng
TNT
Sui5
RC
PH
Mnet
Kìⁿ
GB
G2
Craig
Chrome
Alice
919
781
568
418
3481
1791
12000
##60
##35
##ら
##ot
Ｓ
鑠
蚻
薅
温
呃
劊
thaN7
team
pín
lò
loˊ
live
girl
free
budˋ
ba5
WWE
UFO
Two
Tower
TD
Story
Samuel
Roy
Police
OEM
Miguel
Kin7
HS
Ferragamo
Brad
Bernard
ABS
681
623
534
467
463
1826
0206
##ov
##cy
闐
鎉
鄱
趺
蓀
肱
惘
偝
zeuˋ
thiong2
taipei
song5
phou5
nä
non
luí
koâiⁿ
khong2
henˇ
gonˋ
gai
den
chhéⁿ
bye
Wall
UK
Tyler
Place
Kng
Kiàn
Hou5
Goā
Beyond
929
756
454
373
2900
20000
1788
##TV
##22
##ラ
##ō
##ku
黍
躘
蠱
盹
玥
漯
挈
vi
tshuân
tshia
teN7
sáng
soan7
sedˋ
rhiuˇ
piau
oan7
ngongˇ
ngiedˋ
maˋ
kńg
khuán
guaiˋ
faˇ
cho5
because
Tech
IEC
Human
HOĒ
Guī
Elizabeth
Diamond
671
617
531
1783
##ん
##も
##ys
郴
譟
諄
胿
硐
洘
撣
嵙
㘝
ガス
«
tsu
tsin
thin7
thi3
small
seuˋ
right
pot
nau7
kiàⁿ
khian3
jim5
how
go5
ba2
Wonder
Women
Systems
Soaⁿ
Sandy
OT
OF
Leonard
Káu
Fendi
EN
Drive
Chheh
Academy
574
567
5200
437
419
##25
##ク
##zi
##pa
##ell
Ｆ
ＤＮＡ
靛
鈎
褓
菀
礪
潺
徨
弁
庠
zidˋ
where
tsū
tik
phòng
phih
kāu
kuan
kienˋ
hek
goo
Tiong2
Social
Siūⁿ
SHINee
Q2
Parker
Magic
Lū
Lûn
Luke
Law
Kuí
Hā
GM
FTSE
EMBA
DD
Class
Canon
CJ
Bush
Bong2
Boe2
Alpha
Airport
985
711
533
509
4700
447
445
##NG
##32
##31
##く
##tt
##om
##lo
##ham
鱘
鮫
鬮
螔
瘠
檄
哊
ìm
ë
tshìng
noa2
loé
jidˋ
iàm
ginˊ
giat8
bag
UBA
Tian7
Stanley
Run
Pu
Oân
Lo2
Kā
I5
Gold
Europe
Bad
Back
Anne
A6
9500
876
792
768
758
674
593
559
545
544
527
495
1111
##02
##つ
釅
荳
芫
芍
瘻
琍
檎
抌
塒
啻
万
Ô
Î
ue
simˇ
puî
piˋ
kîⁿ
kiô
khóan
khu5
khih
hua
hin5
gung
gauˊ
cog
caˊ
Wong
Ted
Sou3
Operation
NVIDIA
Michel
MUSIC
Kéng
Hospital
France
Douglas
Derek
Danny
Dance
Cindy
Charlie
Carter
Billboard
978
908
706
663
6300
598
578
537
479
468
457
417
409
397
389
1625
1550
1521
1080
##ina
##ent
##che
諤
袚
臚
拴
憢
坨
国
䲁
⑴
thu
something
phú
phè
phou7
night
ngied
lung
loân
loah8
langˇ
lang2
kam5
hin
heh
gieu
chhiang7
cham3
Year
Wright
Who
Thih
Pou
Ong
Museum
More
Like
Last
Khui
I3
Hamilton
Greg
Golden
Dave
Chin2
Arthur
Are
Angel
A320
788
682
572
436
1643
##TA
##Ｏ
##cm
齁
踣
蟄
螈
璠
彧
嬛
婊
塠
ㄈ
お
ĪN
toat8
taN5
pio
phāu
moˋ
loo
kog
kiˆ
khiah
khat
health
gieˊ
baby
Way
Victoria
Theh8
Tesla
Sia2
Phek
Morris
MG
Koeh
Kate
ISIS
EX
EMI
Department
DAX
Chè
CS
Arts
986
8800
818
782
721
604
602
564
536
484
1624
1570
##し
##ure
𥯟
𡧛
鶖
鶉
鉦
鈿
郢
蛭
簣
県
栃
扉
凈
倔
㑁
る
する
tshuë
thoa7
see
pēng
phau7
ngeh
kidˋ
cadˋ
aˋ
Ultrabook
Sui2
Ralph
Pîⁿ
Put8
PSI
Nelson
Lear
Lat
Kiong
Ip
Hiàn
H5N2
FN
925
816
757
723
716
679
546
507
466
416
414
2G
1648
##28
##23
##14
##ria
##im
鬖
駟
胯
珞
爰
媧
坯
叟
íng
zoi
xia
tsí
shong
senˊ
kiú
khoàn
khiuⁿ
ke5
jiˇ
gagˋ
fi
chiáng
cha7
Vogue
UH
U23
Point
PE
Nature
Mega
Khì
Khim
Johnny
Hal
Federer
DA
Chang
Card
Beach
Ann
939
656
638
551
496
393
3100
1827
1683
1583
##55
##000
##ver
##field
𠖄
鋇
螷
瑁
玹
撨
戥
愿
嫗
囫
嗤
俬
亳
âu
tr
sàm
songˋ
phou3
ou7
nǹg
number
loe2
kon
jiau3
foo
congˇ
cam
breakingnews
binˋ
Word
Ultra
Tng5
TS
Silver
Public
ON
NEWS
Lord
Liau2
Jacob
Gear
FOMC
End
E6
Cross
Chun3
Chek
998
833
458
449
4300
3P
1816
1798
1680
1571
1565
##04
##Ｔ
##Ｄ
##ア
鵠
辻
觔
蝟
蜺
獠
匐
劵
é
well
tuh8
moai5
kiann
haˇ
fiˋ
chê
chhun3
bë
V6
UV
Tâng
TC
Siang
SiaN5
S1
QS
Leng7
Koat
Jessica
Jane
IL
He2
Hai7
Development
Corp
Cooper
Collection
Chhia
Chau2
Benjamin
907
834
789
766
722
708
592
423
1811
1590
1562
1001
##100
##ド
##mer
##ho
９
颯
醍
訌
脇
窕
敍
挩
抿
学
な
wo
tà
tsuä
tiah
then
open
kun3
know
kienˇ
khan3
jit
hân
government
gag
cung
chng7
bãk
U12
TCP
Siri
Siang2
PUMA
Oxford
Micro
Lau2
If
Hong7
Góa
Education
Court
Bang7
Band
AKIRA
A330
783
668
639
619
471
469
442
1st
1637
##み
##per
##pe
##ium
##di
##by
鼩
粲
査
婺
zoˋ
tîⁿ
thui2
sùn
sha
oè
làu
khîⁿ
kheⁿ
fungˊ
come
around
am2
Voting
Vision
Tsia
Town
Tn
Thiap
Sian7
President
Pha
P2P
Net
Jû
IoT
Field
Evan
Eason
Cheng7
CN
Australia
Action
Abu
959
727
715
677
653
608
587
553
549
492
489
2448
1784
1642
050
##SE
##Ｉ
##イ
##sis
##ron
##and
顳
錸
谿
芡
膕
絶
筲
秫
瘁
槭
栱
戦
慵
嵋
冽
ziin
yo
word
tsú
tsuā
tsiu
tiu
puˋ
paper
oah
ngē
nenˊ
kâu
kiaˋ
iuˊ
giau
gauˇ
diamˋ
dam
béng
between
aˊ
XR
Stone
SpaceX
Siú
Running
Q1
Part
NFC
Mount
Harris
GPU
GG
Control
Chhi3
CG
Bong
Bek8
BOX
996
762
735
689
611
563
543
511
3900
3400
2357
1794
1778
1720
1636
1629
1440
##Hz
##tor
##ting
##tar
##ant
詈
褔
葺
睨
癆
痂
玳
汨
櫼
棻
埂
tún
siáng
sah
public
poan7
phong2
nun
ngienˋ
ngadˋ
mâu
lun
lugˋ
grm
chà
chng3
chhàm
ced
case
bok
Theng3
Sarah
NIKE
Money
Miu
MP3
Los
Long5
Linda
Jump
Future
EA
Christmas
Chhiah
Carmelo
CM
By
Boston
Barker
Amy
751
705
6600
659
562
538
526
478
477
1781
1760
16V
1620
##64
##46
##tz
##gi
##den
ｅ
麭
襠
裨
萩
watch
vuˋ
tsing
thoah
thiok
suī
say
maˊ
many
leu
hoàn
duˇ
during
chim3
chhan3
car
an7
When
Water
V8
TO
ST
Russia
Rap
PV
PT
PDF
M4
Khai
Heh
FA
Chhong3
Chhian
Chha
CW
Bobby
BT
903
865
753
713
635
566
459
2353
1586
##CO
##48
##37
##36
##ナ
##up
##ow
##line
##ini
##he
##ak
𤲍
馱
覂
珥
献
淌
檗
椹
斲
匭
匍
㜮
ㄥ
ㄜ
zioˇ
used
stay
pháu
phau2
kheng3
goa
funˋ
diam
deb
U19
Surface
Security
Old
Lông
Kūn
KKBOX
Guá
Foundation
Financial
Emma
EOS
Discovery
Die
Block
Ball
APSK
AIR
9600
845
843
799
791
724
709
655
5600
524
444
394
2311
1785
1568
##IS
##な
##í
##án
##mo
闈
蝌
茯
繚
祜
発
瑶
熰
涪
悵
徳
く
twitter
tshap
tsah
school
samˇ
same
place
phun3
phoe7
mg
kō
kud
kiam5
iâu
heuˋ
habˋ
Tiông
Thai5
Software
Silva
Report
PS4
Our
OBU
Niû
Main
Lóng
Klay
Kindle
Eh
EVA
EG
Cho2
Cho
Ca
CT
CAC
ATT
785
744
6800
651
648
628
615
1660
1604
##ST
##90
##ロ
##а
##mann
##kin
##ford
##ary
軻
豢
蚪
苴
炘
樖
寛
咫
ḿ
tsiãh
tshuì
tinˇ
tháng
thap
pin7
pan5
ngid
much
labˋ
kông
jid
ienˇ
hàm
hue
fuˇ
chogˋ
biáu
YSL
Vol
UN
ThiaN3
SSD
Ruby
Q4
Pin
Phí
Mail
MMC
M8
Harvard
Explorer
Darren
CoCo
Calvin
Boris
BS
Austin
AlphaGo
AS
981
912
863
837
7800
717
661
561
548
547
491
462
3M
2303
1582
##99
##88
##ú
##way
##ung
##tte
饌
醐
軫
讒
蔴
蒴
砣
疽
湞
搦
抋
徬
嘜
σ
è
zonˋ
zhinˋ
tshiâng
toa
shui
part
padˋ
moˊ
iàn
hoan3
gioh8
gieuˊ
gabˋ
cuˊ
bongˋ
Wecare
Têng
Tu5
Tibet
Sunny
Stop
Sean
Sang
SE
S2
RT
QE3
Putin
Phîⁿ
NATO
Muhammad
Lēng
Karen
Jerome
Hollywood
Hans
Dwyane
DeNA
Chhù
Chhiu7
Beauty
969
926
745
647
613
4600
434
1797
1730
1517
1150
##ING
##08
##03
##て
##her
##gh
##ber
賡
貲
芻
筅
琊
犍
xiongˊ
x86
tsóng
state
niu
momo
kieuˇ
keng7
gog
cii
chheng5
bang
Take
T2
So2
Singapore
Siang7
SIG
Oah8
OPEN
NA
Lucky
Lu
Library
Kiss
Joy
Irving
Hioh
German
GD
Derrick
ChheN
991
988
838
557
487
474
421
396
2382
1649
1630
##Ｍ
##ons
##jo
##em
𩜄
鼐
鶇
鱧
蝽
蚋
舛
紺
稗
櫓
暘
捼
唶
zi
tsng
tiauˇ
siâu
pon
phoat
lon
koi
km²
hoā
hemˊ
cien
chô
chonˋ
Visa
Valley
Salvatore
Pháiⁿ
Nexus
Mng7
Metro
Manny
Liah8
KC
Jacobs
Hermes
HPC
H5N1
Get
GS
ELEVEn
Dwight
Chháu
Bag
BP
Airbnb
A380
886
858
815
761
755
686
482
473
1368
1260
089
##57
##ster
Ｏ
餽
鉼
邳
菈
脷
皚
犂
濞
氙
惲
壑
⑵
δ
ī
Ú
uat
tsi
thiong3
tam2
shinˋ
paˋ
oang2
mui
mau
lõh
liˊ
khà
iang5
giaˋ
ciin
care
YOU
Westbrook
Today
Tod
Sūn
Siraya
See
SR
SG
SC
Pin5
Phu
Mozilla
MY
Lopez
Loonng
Link
Kau2
Kai3
Ji5
IOC
IDF
Han5
Football
Desire
DDR3
Cartier
CHÍ
Bradley
Bang
965
895
775
684
634
609
569
4S
481
446
4400
1B
1622
1547
1380
123456789RHE
##à
##well
##ky
##ea
流
譭
裾
胗
碣
痲
畠
橈
晷
揌
孿
坩
トラック
war
star
second
police
oeh8
ngin3
moâ
miangˋ
koá
kiu2
kiann7
khõk
khiáu
iservice
gimˊ
deuˊ
chiˋ
chang2
bân
any
Zero
XS
Wild
Voice
Tû
Thiat
Sun5
SKE48
SF
SEC
QA
Python
Oscar
OPPO
Novak
Loā
Kà
Kio3
Khêng
Joel
Iau7
HT
GP
GMP
Forever
Come
Chicago
Chhong
CV
Butler
Beat
803
6K
573
493
472
461
2882
2325
1787
1782
1627
##91
##63
##34
##09
##Ｒ
##カ
##で
##ui
##ten
##be
Ｕ
Ｈ
霽
鏨
謫
荽
獷
獴
旼
嶠
孬
㧻
་
ńg
zhi
vunˇ
told
thiap8
such
shongˋ
saˋ
qi
pa5
moe5
lãk
lien
khi7
jih8
here
guˊ
coˊ
coiˋ
ciid
chuh
based
anh
air
Wind
TÂI
Tokyo
Th
Susi
OUTLET
Nobel
NONO
NN
Mars
Liâm
Libra
LEXUS
Kid
JUNIOR
Ice
ITF
Hybrid
Fund
Fashion
FU
Double
Classic
Blake
Airlines
871
868
842
788995
765
754
733
691
685
5400
1786
1729
1553
1301
##98
##Ｆ
##e5
鬩
鉬
鄢
詒
觴
蝲
膘
縭
竑
痾
昴
敆
徜
䠙
xinˊ
want
sag
meh8
liú
langˊ
kieu
e1
diaˇ
Vita
Un2
Tiger
Thou5
Thau3
Spa
Soul
Rob
Port
PSY
OTT
Ni
Mother
Moore
Marco
MRI
MINI
M1B
M16
Lexus
KOÀ
Jamie
HOTSYSR
G1
French
Choan
Chhau2
California
COVID
CA
A11
941
836
665
662
637
565
5300
2B
1777
1759
1647
1646
1535
##IN
##DA
##AR
##85
##tan
##ok
##eh
﹏
鵟
鈈
釷
菟
眸
滁
徉
妏
塩
丼
ㄛ
zinˋ
tīⁿ
tsá
tsài
nunˋ
ngionˊ
national
miang
local
liãh
khiu5
gungˋ
eBay
ciangˋ
big
WitsView
Tun
TOYOTA
Stadium
Sara
SN
Ron
Program
Pat8
Only
NS
Mui5
Melody
Made
Kids
Kham2
Jennifer
India
Huī
Hoán
History
Grant
Chut8
Chong5
Chhi7
CHHÀI
CAS
Baker
BO
Asian
979
971
927
892
861
821
798
704
703
657
631
494
464
##MA
##68
##45
##38
##α
##ru
##ire
##ino
##ik
##ide
##ful
##chi
１０
騾
觳
褥
裊
璦
漥
没
掇
囧
àu
xien
week
vadˋ
tsîng
tiˊ
ting
point
phìⁿ
pheng3
pay
med
luî
liveNews
kúi
kiⁿ
khun
key
keN
iaN3
hiungˇ
hiam
gún
gui
feˋ
fanˇ
chuì
Vivian
USGS
Texas
TG
Solo
Sok
Singh
RM
Pompeo
Peace
Par
Nation
MacBook
Jim7
Hôa
Hoan2
E8
Down
Cruz
Color
Cole
Cafe
CNBLUE
AL
923
825
683
641
532
2408
1651
1560
1505
##LE
##Cl
##CC
##AL
##ム
##こ
##ore
##ii
##han
##cc
驪
迤
豸
羶
笪
矜
玷
犛
懨
慇
勖
も
つ
Δ
use
tun7
tsat
toˊ
top
tiáⁿ
siongˇ
samˋ
pà
phainn2
oáⁿ
mō
ludˋ
kim7
kiat8
iˋ
i8
chhap8
biang
best
WiMAX
True
Tan2
Swan
Shylock
Secret
RX
Portia
Pen
Oāⁿ
Norman
NH
Mt
Michelle
Mi5
Malcolm
MB
Lucy
Kennedy
Joey
Giâm
Gi2
Friday
Freedom
FF
D1
Auto
Athletic
874
832
786
763
718
712
413
1493
##US
##SA
##66
##49
##tes
##mg
##ich
##ica
##ess
鰨
鑭
鎩
鍔
蘄
蓑
苧
浡
槨
朮
廨
嶔
偓
zungˋ
zog
xiuˋ
tuˇ
tshìn
ngiuˇ
nang
koo
hiˊ
hia5
great
gadˋ
dangˇ
bun2
XXX
Virginia
Toh8
Tiam7
Tang5
Stan
SL
Roberto
Poe
Philippe
PAGASA
Oliver
NTT
Loe7
Loa7
LP
Klein
Jiân
JavaScript
Iong2
Hope
Hiong5
Diego
ChiaN3
CK
C4
881
811
732
728
714
673
654
3DS
3673
2412
1779
1765
1541
1220
##75
##Ｋ
##zo
##tta
##shi
##ist
##house
##est
##bo
𣿅
鋐
鉈
込
誒
瘴
䢍
zang
vanˇ
tsáu
sà
siˋ
siuˇ
seu
pheng
pe3
nà
model
mau5
kánn
heart
head
goat8
giàn
giung
giedˋ
chiuN2
body
ba7
VIII
Tou7
Theng5
Susan
Roman
Rights
Review
RAM
Piān
PhiN5
PSP
PM
Next
Nadal
NEW
N2
Modern
MK
Laurent
Laura
Kris
K2
Iong7
Hunter
His
Gonzalez
GN
Edition
Easy
Coco
Chhe
Change
Castle
CHO
Boss
Bird
992
987
946
924
862
835
824
779
738
725
697
3B
2474
2026
1707
1688
1631
1615
1559
1040
##RO
##PA
##95
##53
##Ｎ
##ニ
##rn
##ara
ＳＡＲＳ
蹓
蚩
綰
箬
杲
忪
囹
㗱
さ
zhuˋ
young
tungˋ
tiat8
thióng
thiN7
should
sangˇ
pùn
pin3
phāng
nangˋ
media
liong
law
kiok
khang3
iPhone5
hand
gl
gai5
die
biu7
baˇ
aspx
against
Warren
UC
Tēⁿ
Trade
Toyota
Toe3
Stuart
Seven
PÒ
Polo
Pascal
Page
NSO
NEC
Mirror
MR
MAC
Liông
JF
François
Fan
Deep
Chì
Chài
Chun5
Chandler
COM
CL
C3
Bou7
Age
841
8300
664
513
4D
441
2PM
1768
1762
1740
1699
1538
1101
1030
##83
##26
##ē
##tus
##od
##ial
##gan
##fa
##dy
##con
𤤳
ＢＢＣ
理
雺
躐
諏
裱
蚼
蕌
沊
揲
拽
坱
佤
䊵
ziabˊ
zauˊ
tvN
tienˋ
thán
side
own
ngiad
lui
liàn
kiâm
king
honnh
hiat8
dongˋ
denˊ
chhu7
chhoán
chhong2
Yu
U17
Trans
TIUN
T1
Sergio
Poa
Pah
PKLSK
OÂN
Neo
Monster
Monsieur
Loh8
Lara
K7
José
Jo
Jake
Graham
GIS
District
DB
Cube
Coffee
Chī
Billy
Beta
ASCII
993
961
936
855
826
769
743
729
687
669
652
614
541
1769
1723
1511
003
##CA
##77
##07
##è
##sm
##san
##net
##nda
##ius
＠
鸛
鱇
駡
鉞
鈑
踰
跁
賚
戸
儁
tóo
tsinn
tenˇ
nāu
ngiung
mà
mooh
million
list
kuè
instagram
hàinn
giuˋ
bóo
Villa
Unit
Turner
Tam5
Sú
Sweet
Studios
Stay
SB
RD
RCEP
Pokemon
Pek8
PM10
IDC
Holdings
HoaN
From
FAPA
Costco
Chai3
CI
Brothers
BEST
B3
Avenue
Amen
Alfred
887
877
813
726
6s
642
497
1628
1626
1610
1573
1402
1303
1070
011
##ET
##51
##キ
##uh
##ud
##ua
##sky
##ks
##ex
##era
𢳪
鮨
鮟
馗
顴
衩
籜
珅
燧
毬
櫪
挃
愍
呤
冑
‖
ω
tiunn5
run
rhenˇ
play
phin
panˊ
ngiang
liâng
lauˇ
kuá
khian2
hold
hod
gonˊ
giungˊ
data
cell
Wood
Western
Wesley
Vincent
Sun7
Services
Reddit
Ok
Nicholas
Ng
Moody
Mn
Mitchell
Kiâⁿ
Il
HKT48
FM2
Ericsson
England
Dick
Chhì
Car
Blu
Biau7
Beng7
975
918
856
828
806
7600
4A
1736
1725
1544
##96
##42
##39
##ë
##ted
##nes
##kg
##ft
##ani
ＰＫ
朗
麽
鱺
顗
靄
鈽
蹔
跏
菫
臏
胠
縐
湟
梶
杙
С
vun
tîng
tshiú
tiongˋ
thinn
shang
rhiuˋ
luˇ
koáiⁿ
khoaN2
jí
hiáng
haN2
gienˊ
dungˊ
dui
damˋ
away
ang3
Zach
USTR
UNESCO
Travel
Ten
TOUR
Séng
Sub
Safari
Robin
Prime
Never
Martinez
Mall
MPEG
MA
Low
Loewe
Khioh
Investment
Helen
Head
Final
Eb
Chhoan
Ch
Caroline
Cambridge
Benz
Barth
Adams
ABL
955
945
934
882
854
808
772
771
752
746
736
719
1655
1640
1601
1460
012
##SS
##97
##67
##47
##yu
##ls
##ds
##ac
鰂
閾
跚
磘
瘖
杼
囿
嘹
䗁
îm
xx
vugˋ
tshái
tonˇ
tiö
thâm
siidˋ
short
sheˋ
ray
qiˊ
qiu
post
phun5
percent
next
music
money
lui3
liang
kiânn
khá
iBike
gim7
children
bâng
bar
WhatsApp
Tò
Rodriguez
PoaN3
PeN5
PS2
Mia
MIL
LC
Jacques
J2
Iù
Hero
HA
Gay
Gasol
Fu
Fred
FT
Chē
Care
Camp
Bloomberg
Ah8
Ace
891
884
879
852
776
739
702
693
667
649
4100
2327
1611
1574
1572
##TO
##71
##500
##06
##う
##й
##yo
##ren
##ory
##gen
##ei
﹒
鸕
鴴
鱲
鰺
遢
脚
睇
獰
牚
挐
垠
㗘
ùi
tsì
thim3
teN3
social
since
qidˋ
poo
ooh
niū
naˇ
mas
liongˋ
kiā
kiann2
kheng7
iⁿ
iānn
hinˇ
goe7
gaiˋ
diˋ
club
chhek8
called
bodˋ
art
URM
Táng
Ts
Thai
Sûn
Swatch
Soa
Qualcomm
Planet
PS3
Organization
Nancy
Mountain
March
MBA
Làu
Lip8
L1
JP
Ireland
Hun5
Hugo
Gmail
Giorgio
Forum
FII
Eye
E2
Dean
Dead
Chun2
Azure
AIM
ACE
982
957
933
932
885
864
8400
7K
759
5566
30000
1772
1757
1755
1656
1555
1520
##AM
##86
##41
##29
##ミ
##チ
##я
##и
##ye
##ola
##mar
##gy
##eo
##don
##cal
##ata
##all
魠
鏐
酐
蹣
艉
瓘
瑭
″
won
ua
town
touch
pìnn
per
lu3
look
kóo
khoáⁿ
ka5
iang7
houNh
hotmail
hiau5
gieˇ
diong
con
chiûⁿ
cheN
bun3
bgcolor
ad
Trevor
Tiong7
Taliban
Stand
Seiko
Right
Omega
N95
Medical
Lou
Lono
Leon
Lawrence
LF
Information
IQ
HŌ
HTTP
Georg
Crawford
Chloe
Chioh8
Bé
Body
Bii
Ban
Arena
AMG
954
897
796
764
696
695
5700
1773
1689
1598
1457
1124
080
##LA
##87
##05
##や
##wan
##ors
##men
##lle
##lia
##ev
##ct
##ance
ＷＨＡ
金
鈹
鄖
萸
莠
腴
糋
礐
砭
猙
斕
摶
掾
懟
増
埡
嘌
俎
tīng
tihN8
thiam5
sìm
sugˋ
rhi
qiogˋ
pué
phóng
ngiˇ
ne7
lím
lungˇ
kaN5
jiong5
ie
hué
huiˊ
hangˇ
gamˊ
four
eu
dun
daˊ
cienˇ
chhoan3
VPN
Temple
TOJ
Swift
Storm
Raymond
Pīⁿ
Pedro
Neal
Mode
Mandy
MW
Ko2
June
Iau
IaN5
Hoaⁿ
Hip
Hillary
Hian3
Hassan
Harrison
Goa
Fort
Er
Edge
Death
Dark
Army
Advanced
Access
984
977
968
8888
849
839
734
4K2K
2049
1721
1710
1657
1654
1584
1290
049
##IC
##IA
##93
##200
##Ｌ
##Ｇ
##su
##so
##ova
##lis
##hu
##eng
𢎙
亮
頊
錤
邈
蓊
祗
硃
瓈
炅
溏
沢
専
奭
壙
听
㿸
み
す
zhongˇ
tsún
those
these
space
sen
section
pad
o5
noh
m5
loi
less
kiō
khiàu
khiang3
keⁿ
iPad2
chúi
asp
ViuTV
View
Tah
TFT
Standard
S4
Romeo
Powell
Pink
POLO
PCI
Oah
Nova
NY
Las
Kerr
KI
KAP
Julie
Hart
Garden
Food
Dyson
Clayton
Bu
Bass
B12
Arnold
Apache
AIG
AF
A10
9800
883
812
2881
25000
1632
1614
1564
1526
1130
1020
090
005
##82
##76
##62
##58
##43
##ま
##だ
##more
##llo
##lli
##ht
##des
##art
ＦＢＩ
樂
駢
賸
謚
裼
篦
勅
ノ
ス
water
video
und
tshāi
sik
says
sangˋ
piN2
phoh
ngiongˋ
mangˇ
mang
linˋ
lim2
lam3
jiong2
ii
iat
hiàng
hard
goiˊ
gang
fonˊ
dugˋ
chek8
black
bai7
Yang
Valentino
Tiō
Teng5
TI
Siáⁿ
PheN5
PD
Ocean
NR
M17
Latin
LS
Kí
KT
Julian
Jorge
Islands
Hudson
Hernandez
Fly
Fisher
Fernando
Felix
EU
ERA
Draymond
Der
DR
DOHC
Chou2
C2
At
Astro
Amis
989
962
938
937
851
848
829
698
692
643
1763
1733
1670
1577
1540
##AC
##79
##72
##65
##61
##ツ
##ān
##ser
##lu
##let
##kan
##ite
𤘅
鶼
醭
赳
赭
貘
襤
硤
毽
敎
攫
戾
戆
幗
嫺
嚓
zhung
thok8
research
pháng
phi7
nm
ngo
nemˊ
lāng
ling
les
kha2
including
going
dug
doiˋ
chin5
bbuˇ
anˋ
Virtual
Tau3
Socket
RBC
RAP
Penny
MX
Liau7
KARA
Julia
Joē
Jia
Jesus
Jeffrey
Hûn
Hard
HAPPY
Giam5
Garcia
Face
Eleven
Economic
Disney
DP
Columbia
Cloud
Chhî
Cat
Cameron
Bryce
Boat8
Bián
Basic
BF
B6
AE
9999
942
915
902
872
867
8600
819
794
6400
636
1774
1745
1724
1667
1664
1618
1340
1240
1024
##NA
##ID
##GE
##ES
##78
##ī
##ón
##yan
##wood
##tis
##nm
##mon
##lan
##dae
𠕆
餬
餛
飩
隗
贗
贇
禕
珺
瀬
滉
洺
沭
彣
嘧
冏
佶
カルヴイン
した
から
λ
tsō
tap8
suan
siam
shiuˋ
saˊ
pungˇ
pian2
online
ngiabˊ
munˇ
maiˆ
lug
light
langˋ
koiˇ
hiânn
happy
gon
gamˋ
every
dienˋ
company
chugˋ
choaN7
chhàn
cheN2
biô
Venus
VP
VISA
Tann
Stewart
Sidaia
RFC
Ohio
Nu
Murphy
Mod
Manuel
MWC
Lumia
LuLu
Lion
LR
LLB
Kú
Khèng
Khun2
Khou
Jazz
Independent
IRT
Hold
Guy
GSM
Four
Falla
Engine
Edwin
EV
EF
Djokovic
Di
Delta
DO
Cu
Chung
Chin7
CZ
CR
Be2
BTS
August
967
958
943
898
853
795
778
24h
1K
18000
1758
1685
1641
1619
1578
1140
030
##PO
##MS
##コ
##ân
##ux
##tra
##ld
##lar
##ens
##bus
##bi
##aw
##ano
鷄
鶿
顓
鑌
蘢
蒟
脥
胝
肴
礬
瘜
烜
滘
沬
沆
楫
惻
嗊
凪
¹
za
without
tsuánn
tshi
seˇ
ofo
muiˋ
meu
liugˋ
kiuh
iam
hâi
hainn
guiˋ
funˇ
dl
chhùn
change
biˋ
bangˋ
ab
ZE
Ward
Via
Verizon
UNIX
Tui
TrendForce
Thank
Tea
TRF
TGV
TB
Swarovski
Stanton
Sound
RE
Partners
Ngou5
Margaret
M9
Liāu
Lance
KK
IPA
Hugh
Hoe2
Hat
GPL
FAA
Emily
DT
Chiong5
Building
Bottega
Abdul
ADHD
952
944
9200
914
814
773
741
7300
694
2891
1715
1609
1066
##RI
##MW
##EN
##92
##84
##59
##44
##す
##е
##sk
##nan
##burg
##ane
𩜰
𤍒
Ｌ
魴
鞅
鋩
蹼
粳
癟
瘰
疥
槻
昉
嫵
垵
呋
凄
僆
俁
仉
zeuˊ
veˋ
vang
tâ
tsim
tsik
tiauˋ
siaN3
sau2
room
rhaˋ
pû
pop
phe2
peen
oā
ngauˋ
moho
manˇ
linˊ
kungˊ
jiá
ieuˊ
gungˇ
gad
film
cosplay
cn
chīⁿ
chìⁿ
chhiû
bog
alii
Walk
WBC
Veneta
VT
Tin
Spotify
Serena
Roberts
Reuters
Pia
PX
Ou3
Otto
Mu
Mrs
Miles
Maker
Madison
Leslie
Know
Kiōng
Jet
JT
Iap8
IHS
Hân
Hoe5
Her
Hah
Forbes
Five
E1
Del
Crystal
Chiú
Chho
Castro
Café
CIP
CDC
CAN
BE
Australian
9K
983
964
948
922
893
857
3045
1722
1616
1542
1514
1454
1370
1234
1102
0300
##ME
##KE
##CH
##56
##リ
##ズ
##グ
##ウ
##sia
##ris
##ise
##h8
##ach
鮡
餑
銲
銦
蒻
葶
祢
皁
掬
噜
嘓
喨
卍
俥
ㄕ
レ
À
tsë
thih8
tat
sex
rowspan
rha
poh
poat8
phiann
paiˇ
near
mRNA
lõk
lienˇ
khiak8
jiang2
ien
hut8
el
days
chog
chiuˋ
cheN3
chap
bā
a5
Zoo
Zack
Wave
U16
Táu
To2
Sài
Swiss
Stella
Siá
Pope
Pokémon
Olivia
Ngou2
Mission
Mai
Look
Level
LE
Ka3
Ivan
Ia2
Holy
Henri
Golf
GeForce
Foreign
FR
ER
Dirk
Crazy
Charlotte
Boeh
Board
Boan2
Barack
B9TL
Armand
995
947
931
866
859
846
774
6244
2M
1635
1621
1585
1566
1530
1529
1524
1490
1487
1466
1216
1180
1160
10K
008
##TE
##IT
##89
##300
##オ
##ì
##ère
##tin
##res
##ord
##cia
##bps
ＡＩ
異
黒
鍀
貍
繇
粞
粅
禰
碲
畲
爧
澔
柘
摠
坉
嗔
唅
哐
咂
咁
ㄙ
ûi
theory
ted
still
sodˋ
sied
shiˇ
qin
pou5
pián
phoah
ngiug
mother
miangˊ
making
low
level
let
khoè
khiⁿ
khiä
jin
iongˊ
hauˊ
gie
chhiō
avex
another
Yves
Watson
Tor
Tio7
Tho
Tap
Talk
T3
Sharp
Sai2
SV
Rachel
REITs
RB
R1
Princess
Pre
Plaza
Phe
Perl
Omar
OR
NMB48
Movie
Messenger
Marine
Living
Liu
LamiGirls
Lak8
Kín
Japanese
Iu
ICT
Hé
Here
GQ
Fm
Evans
Emmanuel
Elijah
Da
Computer
Bēng
Agency
ALL
966
956
905
889
869
804
7700
4900
1728
1701
1597
1587
1536
1525
1510
048
010
0001
##GA
##CE
##sy
##po
##oy
##oe
##logy
##ci
##ari
路
陘
鍶
酩
胄
窠
珽
澂
様
撆
屣
偲
会
䫌
ㄞ
や
た
Ⅲ
zhoiˇ
xiˊ
writing
vuˇ
theng2
sing
round
red
pui7
ngai2
goiˋ
giãh
giauˇ
even
em
ciu
ciog
chián
chhuh
bike
Yuki
Yawas
Yami
XIII
TiaN7
TAIPEI
Sui7
Simmons
Side
Shop
Rudy
Ramirez
Radeon
Puyuma
Pete
Pazeh
PSA
PHP
Oo
NU
NAFTA
Musk
Mng5
Mitch
Mad
Lu7
Kyrie
Kent
Keith
Kawhi
Jî
IA
Hau7
Garmin
G5
Framework
Enterprise
EPA
EB
Drew
DV
DPP
Commission
Chuck
Chase
Brock
Bio
Base
BSD
BASIC
April
Alphabet
935
899
896
797
3474
2886
2758
1771
1737
1727
1711
1623
16000
1120
088
040
004
##MHz
##81
##マ
##ば
##ò
##oo
##oni
##ney
##lus
##ella
##ding
##cus
##bar
𢲴
ＰＲ
３Ｄ
齟
驁
鐓
鋯
邠
荐
膣
筧
礤
狒
氐
廄
岀
倢
ㄉ
ア
ziaˋ
ya
vag
tsun
thún
tag
sunˋ
special
pre
poaN7
ngauˇ
nan
myTV
muiˇ
moê
lîng
little
kiauˇ
hoâi
got
fudˋ
fire
ever
dungˇ
dangˊ
cin
chhiak8
caiˋ
bâ
biong
acid
Ya
Winston
VCR
Uni
UT
Táⁿ
Sweden
STD
Premium
Piaget
P3
O2
November
Non
Morning
Mohammed
Medhurst
Machado
Liáu
Lai
Kuì
Khoe
Khip
Kenneth
KE
Italy
Irish
ITV
Hop
Gun
Far
Fami
Electronics
ET
Deutsche
DeFrancis
DEHP
DE
DAB
Cyber
Curtis
Collins
CSS
Amazing
ART
951
906
878
8700
749
6700
4C
1766
1718
1717
1638
1633
1602
1532
1209
013
##EX
##DO
##A1
##74
##600
##Ｕ
##タ
##じ
##news
##fe
##bu
##ao
ＥＴＣ
鶲
雒
鍙
錙
訢
蝮
籇
盱
甾
燸
灂
棑
旂
斫
掝
抛
扲
孋
喈
て
áu
xienˊ
white
tshiau
thìng
size
sioˆ
sib
report
qiang
pong
pha7
ngiugˋ
map
mag
liù
liong3
laiˇ
hoi
hoah8
hoN3
gam
friDay
copy
chhu5
chhng2
ben
always
again
Youth
Yi
Todd
Tiau5
Tam
TR
Spring
Rogers
Rio
Poē
Pictures
Pass
Palace
PAC
OUT
Natural
Machine
MI
Lipper
Kài
KoaN2
Knight
Kit
Khiam
Iku
IX
HI
H5
Griffin
Glen
Flight
FedEx
Economics
Demo
Dell
DNS
D3
Country
Congress
Chùn
Campbell
CCD
Bf
BWF
Akemi
Adidas
ABA
997
974
916
913
873
2393
1748
1732
1681
1603
1567
1545
1502
1326
1314
1170
1044
075
060
051
032
0302
025
024
00UTC
##Ｖ
##Ｅ
##vo
##tu
##ski
##nia
##ix
##ensis
##cher
##are
ＴＩＦＡ
ＭＯＵ
鯙
関
鍼
鍇
軔
螟
蘅
蕚
蒯
萇
胜
紩
爻
炱
灃
淙
沷
櫺
晬
擪
廡
媺
婀
ㄎ
и
īn
zangˊ
words
uan
tungˇ
tsong
took
tongˇ
thut
thoaN
thian2
tang2
soàn
real
ptt
phuì
phong
peuˇ
order
oiˇ
nginˋ
ma5
liver
liongˇ
lanˇ
khiû
juh
jio7
iPhone6
fui
face
double
chan
Wolf
Wanna
Us
The2
TX
Suî
Studies
Siau2
Saisiyat
SPORTS
Russian
Plan
Pepper
PET
Orange
Oat
NORA
Multi
Minister
Mind
Mate
MHz
LIFE
Khan3
KaN2
Julius
Hok8
Gartner
Gak8
Fusion
Friedrich
FS
Eduardo
Eddie
EMU500
Division
Dictionary
Dalai
ChiN5
Chapman
Chai2
Brett
Bra
Barry
Ari
Again
8200
25G
1764
1754
1709
1682
1675
1669
1599
1221
1139
1038
082
056
055
0304
##94
##73
##52
##エ
##ち
##ず
##в
##yn
##ram
##ken
𣘀
ＳＯＰ
ＡＩＧ
龢
鵪
鈊
郤
邾
輜
襁
葯
腩
纘
綦
笹
痹
痎
珏
樋
揖
嗟
喱
喟
ま
О
τ
ān
ám
xin
tīnn
tshut
tonˊ
tiūⁿ
shell
qiuˊ
puˇ
piàng
phu
phoé
phaN7
pagˋ
nouh
naiˇ
lauˋ
kuānn
known
khóng
kadˋ
háng
hot
himˇ
heˊ
hauˇ
food
fong
five
fid
fadˋ
edˋ
chidˋ
ara
Yo
Vicky
VC
Ubuntu
Teddy
Technologies
Tayal
Rich
R2
Olympic
Messi
Me5
Martaro
MH
MAD
Lun5
Lui5
Lou2
Lionel
Lily
KA
ITC
Hian5
Hey
Ham
Gigi
Geo
G3
Federation
Federal
Empire
EEEEEE
Cohen
Cody
Claude
Cl
Châi
Chu3
Cell
CPL
Brand
Bit8
Beats
Bear
Andrea
Ana
976
953
894
4GB
2610
1761
1756
1751
1674
1659
1613
1575
1439
1031
022
##RE
##レ
##フ
##μg
##xx
##je
##ig
##ick
##hin
##ght
##dia
##ans
ＮＧＯ
ＮＡＳＡ
齲
韞
銣
芾
綹
甪
潸
滓
嶴
坌
圇
ㄌ
ó
xiu
woman
think
tanˋ
tanh
table
sudˋ
simˋ
sienˇ
shed
risk
rhangˋ
phái
phun2
phuh
person
oaiN
noˋ
niä
ml
miss
liamˇ
laiˋ
kua
kag
iä
inn
ian7
hèng
hiu2
fud
fe
demˇ
ciangˊ
chhe5
both
anti
aih
Zone
X1
WORLD
Urban
UPS
TW
TIME
T5
Stars
Spencer
SI
SH
SEMI
Piat8
Phillip
Perfume
PLUS
Off
Neil
Med
Liam
Lauren
Lau
Lam
Kors
KEN
Jun
Indian
IND
HaiN7
F16
Euro
Elon
EXID
Dog
Doctor
Chàn
Chok
Che5
Celine
Catherine
CO2
CE
Bye
Angelo
Amanda
Alliance
ATI
ACP
972
909
8100
5100
50000
3231
2880
2356
2324
1735
1612
1607
1605
1556
1554
1512
1506
1469
1404
14000
1320
##TI
##NE
##KI
##KA
##DI
##AT
##27
##め
##zer
##yl
##ves
##ura
##uk
##ring
##rin
##ju
##ira
##ice
##fer
ＫＴＶ
鰹
鯪
顒
霙
褡
茈
縖
牘
烱
歴
搢
崽
婧
垛
偈
⑶
āiⁿ
zung
zua
ze
xiˋ
vudˋ
view
tsûn
thoàn
tann7
story
station
siongˊ
single
sianpai
phàⁿ
ngáu
mé
láng
liang7
li3
käng
koeh8
khng
hiaN3
gienˇ
each
ciˇ
choh8
binˇ
Work
Wells
Viva
Version
Velvet
Universal
UFC
Tùi
Sing
Shah
Sanchez
SGS
Rue
Ronald
Rainbow
Pēⁿ
Player
Ph
Parsons
Palm
Order
Nikola
Medicine
Markit
Make
Maggie
MLCC
Láu
Lollipop
Lama
Hāiⁿ
Herbert
Goldman
Ge
Gabriel
Flying
F2
Elva
ES
EMU800
Doug
Conference
Chàu
Chiā
Chief
CMS
Bû
Bit
Bin
Bc
BOSS
AirPods
Ahmed
AIPH
963
847
827
64GB
5S
2040
2027
1767
1753
1742
1734
1684
1634
1595
1591
1509
##BA
##ū
##ü
##zation
##vi
##rie
##ona
##oa
##ization
##ish
##ins
##hen
##ez
鼴
黗
鱨
驒
闓
蹁
薙
芛
胼
浤
歩
扱
廩
嵊
堋
嘐
嗩
唄
勯
倌
俶
シ
イ
θ
ínn
zud
zhinˇ
xiangˋ
vangˇ
táng
tsut
tsiãp
tshui
sîng
sub
neuˇ
nCoV
luˊ
khián
kai5
iPhone4
huî
hon
hiàm
half
gimˇ
full
far
cong
chinn5
chhùi
canˊ
bienˋ
according
Yellow
VIX
U20
Twitch
Trust
Tiān
Sīm
Support
Southern
Sorry
Some
Rona
ROCK
RED
Pentium
PLAY
PL
Nina
Nam
Moâ
Mohammad
MOMO
MIC
MDMA
Luther
Lie
Lane
Lab
Khiā
Khin5
Ketury
KP
Joyce
Jin
Ing
IF
Him
Hang
Guide
Government
GF
G8
EI
Cool
Chīn
Chûn
Bin7
Barnes
BY
BA
Angeles
Abon
AU
AMC
917
793
7400
4904
3519
32GB
2371
1738
1704
1679
1673
1653
1588
1561
1523
1475
1420
1275
1270
1138
1127
1042
035
##WA
##お
##ù
##tti
##sch
##rus
##ran
##port
##oh
##nu
##ib
##gs
##ena
##du
##ale
##ade
𪘒
ＧＰＳ
靺
鉍
酢
邛
輅
踊
跕
詑
蠡
脲
翳
点
渧
汜
氘
柝
攄
擼
摷
孱
哏
Ю
Ài
zaiˋ
uân
tui5
toi
tiˋ
tiunn
thut8
súi
stop
soān
siânn
siag
shid
phan3
oang
nam
muiˊ
min
kēng
khi5
hoâiⁿ
hio7
gui7
guagˋ
gaiˇ
effect
diauˇ
ciˋ
chhiam2
baˋ
band
ahq
Yumi
Wikipedia
WRC
Volvo
VHS
VF
Ui5
UBS
Triple
Tou
Tina
Than3
Start
Spy
Son
Sia3
SW
STUDIO
Pi7
POS
OG
Nathan
Nai2
N1
Motor
Meg
MM
L2
Khi
KISS
KB
JDI
INFINITE
IM
Hùn
HPV
HOLA
Gián
Gerald
GUCCI
Friends
Francois
Fair
FO
Estonia
Elena
Culture
Chiu2
CX
Bryan
Bosh
Bon
Benedict
BMT
BEAST
Audio
Ash
Advance
9700
949
904
6200
2618
2475
2384
1702
1658
1652
1581
1528
1527
1522
1478
1409
1360
1210
11000
1032
0301
020
017
##EL
##AS
##800
##１
##リー
##ノ
##dale
##car
##ap
##ama
Ｙ
都
酊
詁
蜃
蔦
萜
菏
苫
翦
砦
猋
氬
毎
捫
哞
パ
チ
ひ
ζ
win
vug
tíng
tsâi
tshah
touh
thīn
taiwan
spa
soˇ
saying
pose
phoah8
pen
oˊ
oê
nou3
ngī
need
mol
magazine
lud
lienˋ
len
kǹg
kuso
kik
khuí
ianˇ
iF
hohN
hiang3
hamˇ
guag
giungˇ
giauˋ
future
diamˇ
dead
cinˇ
chùn
caˇ
bāi
buiˆ
boat
Yan
XL
Winter
Wei
Village
V2
Tó
Sydney
Suí
Small
Siáu
Shell
Sammi
Said
SIÂⁿ
S5
Roma
RFID
Professor
Prize
Policy
Perfect
PDA
OA
Ngāu
Most
Mohamed
Mercedes
Mc
ML
Lorenzo
Kurt
Kill
Kiau
Khak
Jio
JTBC
Inter
Ibrahim
IEK
Hì
HÚ
Hydis
Honey
Holiday
Gray
Give
GPT
Frederick
FAD
Erika
Eco
Earl
EST
Duke
DX
Choh
Chhiong
Chhin3
Championship
Challenge
Carolina
CSR
Brooks
Bible
Baron
BIG
Alexa
Ac
APM
ADR
973
3037
2892
1741
1731
1714
1703
1639
1593
1569
1519
1501
1369
1230
1110
1025
1010
0L
##RS
##Go
##ı
##ws
##stein
##ros
##red
##my
##ert
##ero
##eri
##ene
##ec
##dan
##cs
##ace
馦
鞨
鄆
郅
跩
耒
篋
笏
爨
沔
歛
榎
楸
朐
懍
恊
嬈
喤
党
䴉
䁯
ㄠ
タ
А
went
tsíng
trade
tone
thoan3
start
species
sorry
sh
pung
phõk
pass
ngiongˊ
ngau
nadˋ
mo3
miau
lù
lio5
land
kiuˋ
kiangˊ
iam2
hîn
hTC
gâm
guiˇ
gugˋ
global
gim
erˊ
east
control
chóaⁿ
choe5
chhiâng
cad
bá
banˇ
YOUTUBE
Wish
Wales
VB
UL
Twins
Training
Tian
Tell
Tag
TH
Sùn
Spirit
Showcase
Second
Sai3
SAN
Rail
RISC
RA
Persian
Pangcah
Original
OTC
Mā
Michigan
Mer
Liz
Lio
Lang
Koan2
Kimi
Judy
JUMP
Ian5
ISS
Hu3
Hoa3
HMS
HINO
Gu
Glass
Gibson
Giancarlo
Georgia
Gardner
GOOGLE
GC
Fast
FCC
Electric
EIA
Dylan
D2
Crown
Corey
Colin
Christ
Chhou
Chhe7
CNC
CALL
Beautiful
Bai
BH
Active
6S
5483
2028
1690
1687
1676
1617
1579
1551
1537
1499
1481
1415
1201
1008
1002
098
059
053
033
006
##VE
##SI
##OM
##さ
##ς
##ée
##yi
##ula
##sing
##ray
##ple
ＰＭＩ
ＮＢＡ
ＣＰＲ
力
蹇
蒓
葱
茍
芩
罡
疃
瑗
楗
椽
桉
嵇
壱
Ω
Å
zhon
xiong
tám
tsàm
tshik
tio3
tiN3
sio5
shangˇ
poem
pinˋ
often
niu2
ngidˋ
kung
khiap
hôo
gug
giabˋ
duˊ
chudˋ
choaN3
chhiang2
blue
bagˋ
abˋ
Xavier
WE
VCD
U5
Tsóng
Teng7
TLC
TAO
Sol
Snow
Shane
Schmidt
Sailor
Private
Pixel
Pio2
PRO
Oracle
Nissan
Nia2
NSA
NPC
MT
List
Lincoln
Kingdom
Kershaw
JO
Interactive
Hoan5
Hiap8
Gino
Gael
GW
GI
FTISLAND
Eee
DSP
DG
Countdown
Concert
CVT
C8
Boa
Arrondissement
Alberto
AirAsia
4B
40000
2888
1752
1743
1666
1563
1552
1546
1539
1477
1433
1371
1122
1090
1049
1011
085
066
047
036
##PS
##HA
##EC
##69
##54
##ット
##ы
##zel
##sson
##ping
##ning
##mus
##hp
##eg
##cu
##ada
𩚨
ＭＩＴ
ＩＣＡＯ
讀
髕
鑛
銥
迒
萘
腍
縵
簌
畊
獐
怜
嬭
圄
嚊
咏
倯
俍
サ
в
yu
xiuˇ
wife
tshãk
thio
thau7
tham5
sòa
soo
someone
siöng
saiˇ
pháinn
niˋ
month
market
major
main
lóo
loe5
koann
km2
kiung
jióng
iàⁿ
history
hiongˊ
himself
hiauh
guiˊ
give
giap
gianˊ
giam2
ga5
form
fine
event
different
dia
chongˇ
chhiuⁿ
chhe2
caˋ
came
boy
a3i
Zen
Welcome
URL
Tham
TaN2
TF
Sugar
Step
Stein
Sr
Sim7
SiaN
Sia
Sense
Sebastian
Sciences
Sanders
Sale
Sachs
Randy
Phou2
Pai
PIMCO
Okinawa
Naver
Lost
Logic
LSE
Koan7
KoaN
Khang
Jaguar
JI
IBAF
IATA
Hughes
Hiat
Hana
HOTSYS
HC
Fit
Father
F5
F3
Echo
EZ
Dear
Days
Coupe
Con
Common
Chiông
Chhiu2
CSIS
CB
Bureau
Blood
BV
B5
Apollo
Amber
Aldridge
Airways
AIDS
6100
4938
1695
1693
1576
1533
1513
1504
1492
1472
1470
1442
1390
1382
1330
1313
1277
1225
1213
1162
1115
099
067
034
014
##TS
##II
##DE
##AP
##ろ
##れ
##え
##ь
##²
##vin
##tal
##pm
##our
##ology
##eld
##din
##ala
ＱＥ
ＤＲＡＭ
ＡＢＣ
鮠
鮃
驄
雭
虼
虻
葭
舘
眙
炷
扺
彫
嬗
壆
喁
倏
ニ
こう
こ
zagˋ
tū
tsiú
tshàng
test
siagˋ
siN7
sah8
road
ri
pun7
poi
phiâⁿ
past
nen
naˊ
nation
lā
lungˋ
kùn
kuà
khû
kheh8
keep
kad
idea
houN
hiu5
hibˋ
hen
gô
gied
gam5
fanˊ
eye
exe
deˇ
court
chhop8
bauˋ
bauh8
YAHOO
XO
Works
Woods
Vietnam
Ver
Venice
UCLA
Tsai
Tree
To5
Tit8
Thèng
Tat8
TM
Soft
Smile
Six
Scotland
Sabathia
SEA
Room
Ring
Rex
RV
Portable
Pasuya
PRODUCE
Or
OM
Nord
Name
Na5
Movement
Morrison
Min
Middle
Merkel
Memorial
Mei
Marshall
Mar
Mandarin
MF
Logan
Kiâm
Kirk
Khoan
Khng3
Jensen
Jam
JC
J1
IDM
Huang
HSBC
Gua
Generation
Gap
GOT7
GL
G4
Front
Formation
FNC
DirectX
Community
Chû
Chù
Cash
Case
C9
Bou
Born
BELLAVITA
Associates
Anti
AKB
9900
809
21U
1589
1430
1403
1229
1227
1103
1004
096
092
016
##Pa
##ジ
##ガ
##ない
##ご
##け
##zen
##sta
##ood
##oli
##nsis
##nk
##nis
##n2
##len
##ih
##fi
##ette
##ain
度
阯
銼
鄯
鄚
褸
藿
緱
礑
眯
盅
楙
撏
姫
呿
刎
倣
佝
䖙
う
Л
ε
zuiˊ
ziu
zhungˊ
yi
xiuˊ
wiki
using
tshãp
tiauˊ
thing
solo
sinˋ
siang3
researchers
problem
plus
office
leave
ladˋ
kok8
gonˇ
gioˊ
final
field
dungˋ
disease
dinˇ
coo
cidˋ
chiang3
chhok
check
cancer
bõk
age
abc
Zegna
X2
Week
WC
Vu
Volkswagen
Ty
Twin
Tiong5
Three
Theatre
Than
Tel
TOKYO
TL
TICC
Sophie
SoC
Siān
Sih
Shin
Sen
Seh8
Securities
SPEED
SEGA
Rosa
Rodrigo
Poê
Poland
Pizza
PhoaN
Phoa3
Phillips
Phe5
PayPal
Pack
POWER
Metal
Meta
Mass
Masao
M6
M5
Liû
LM
Kui3
KoaN5
Khún
Khun3
KM
Johannes
Jefferson
Iong5
Hills
Hi2
HOT
HDI
Gian
FORMOSA
Devil
Defense
Damian
Dai
DDR2
Convention
Chiàn
ChiuN7
Chin5
Cano
CHI
CAD
Bruno
Bella
Bazing
BDI
About
AWS
844
30ml
2NE1
25K
2345
2035
1744
1705
1672
1445
1276
1265
1238
1215
1088
1060
052
##NS
##MP
##HI
##FA
##ED
##EA
##BO
##â
##yer
##van
##use
##tive
##sha
##ort
##kov
##eus
##bs
##bra
##ase
##air
𢶀
Ｗ
顔
閆
讕
蝰
菡
腌
繷
紕
簑
秣
濶
洸
扦
嶂
喑
ㄏ
カ
ゆかた
ち
zeb
xiag
tour
together
suˊ
siàⁿ
sinˇ
seuˇ
really
pue
png
phīng
pheN7
pet
official
ngiongˇ
ngiangˋ
ngauh8
namˇ
ms
mong
mauh
manˊ
làm
literature
kê
khoaiN3
hemˇ
haN7
gua
door
doi
does
diamˊ
death
chńg
chîn
chéⁿ
chian
chhá
ap8
ago
Ye
Weekly
Wars
Tiat
Tiap8
Thái
TAG
TA
Supreme
Sparrock
Siam2
Shu
Sakai
STS
Ricky
Richardson
Revolution
Reality
Ram
Rally
RO
Province
Princeton
Performance
OP
Nâ
Noah
Nations
NK
Ms
Mont
Ming
Mart
Male
Léng
Liām
Legend
Ki2
KS
Justice
JK
Islam
IEA
Hoai5
Heng7
Hearts
HDMI
HB
Giovanni
Gate
GameCube
FreeBSD
Franco
FIBA
Epic
Eagle
Dustin
Du
Display
DLC
DL
Claire
Chiàm
CBD
Betty
Barbara
B7
Arch
Arc
Animal
Ami
AJ
ACG
A340
5C
3034
1747
1713
1697
1677
1507
1494
1480
1471
1451
1448
1444
1333
1253
1206
1205
1190
1071
1028
1005
095
046
##VA
##OL
##N7
##BE
##３
##わ
##こう
##ر
##р
##tel
##sin
##off
##nte
##nga
##led
##ito
##ita
##gar
##ab
＼
鯔
魮
頴
郗
跢
褵
蠑
蛉
薌
菴
茆
臠
肼
縻
砵
瘭
澐
氪
棹
曩
摵
摖
搩
恵
彊
孖
媗
嘵
喹
唭
哌
円
儋
‾
zooˊ
zedˋ
zaiˇ
vol
vanˊ
tuā
tsām
tsiù
tshenn
thin
teh2
talk
syndrome
som
soann
seven
rights
rain
pug
process
poa3
photo
phong7
phiaⁿ
phau
niú
ngô
moo
months
mind
lì
lost
kuˋ
kungˇ
koe7
jinˋ
iphone
ibn
human
hed
gīm
guai
fag
enˇ
dudˋ
dangˋ
culture
cover
chiˇ
chhoa
chhngh
caiˇ
area
Wing
Wilhelm
Why
Wendy
Too
Tiū
Tau
TED
Sé
Speed
Short
Shaquille
Sex
SHOP
S6
Rivers
RGB
Premier
Oak
Nintendo
Muslim
Maha
Lloyd
LD
Kìm
Kái
Kiú
Kinect
Kak
Junius
Jessie
Iron
ISP
Hou3
Hián
Hin
Hand
HOTEL
Gill
Fantasy
Fanny
FL
Eva
Elite
Einstein
ELLE
Donna
Disc
Den
Dee
Dar
Chhī
Chhân
Ce
Cape
Cabrera
COMEX
Bân
Berg
Babuza
5750
2887
2883
2308
1D
1749
1686
1558
1534
1531
1358
1310
1179
1104
1078
1052
1021
093
070
065
009
0055
##Net
##FD
##ブ
##ック
##ど
##ν
##ô
##zy
##wo
##sel
##pi
##oro
##ora
##low
##iri
##cha
##bank
##ax
𠴭
髯
飫
鐿
鏵
鉋
蹠
蚺
臬
綝
筌
税
畷
湾
湫
暠
妺
咔
伝
ヲ
ご
ùn
zongˋ
tsînn
tshiân
times
students
self
season
score
row
reported
radio
ooˆ
muî
must
led
late
lanˊ
kiˇ
iCloud
geˇ
gay
est
easy
duiˊ
dingˇ
denˇ
choat
chidˊ
chhun2
chhiam3
ceuˇ
boˊ
box
bongˇ
aˆ
Youtuber
Yao
Well
Virgin
Vince
UTF
Tōng
Toru
Tomas
Together
TiN7
TU
TBC
Stage
Solar
Serge
Save
SKY
SAT
Porter
Poeh
Peggy
Package
Pa5
PSV
PARTY
PARK
P500
Ole
Oh8
OPS
Newton
NICONICO
NDS
Monogram
McDonald
Matzka
Lover
Local
LaMarcus
LVMH
Knox
Kiong5
Khit
Khe2
Kay
KR
Jīm
Jenny
Jamal
Intelligence
IWC
I7
Hē
Hoâi
Help
Georges
Florida
FED
Exchange
Engineering
ED
Doc
Dawn
DF
Coast
Cliff
Claus
Chou
Chiau2
Check
Buddleja
Bassanio
Arab
Alonso
Ak
Africa
Ab
AOA
AFP
9400
807
64E
5mm
35A
3514
3166
2nd
2204
1GB
1548
1498
1496
1419
1392
1388
1281
1242
1183
1137
1023
1016
097
091
071
064
018
##XX
##SO
##メ
##ビ
##ハ
##ッ
##シ
##サ
##ね
##we
##py
##pur
##pro
##op
##oi
##nta
##nal
##ml
##lon
##jin
##ight
##hn
##elli
##down
##chu
##box
##bit
##ban
##ball
##ack
ＣＣ
ＣＡＳ
量
鼯
鰩
騖
陟
鐃
錒
鋦
輊
諛
裌
蠹
胴
禛
痤
椋
晩
担
怛
峠
媾
娗
売
埭
圮
嚙
嚄
噻
唵
呾
伨
エ
〞
óa
zhiˊ
tsai7
tongˊ
ton
thīⁿ
tai2
sûi
suá
sua
sports
shu
shagˋ
rhan
pud
piagˋ
phiaN2
phang3
om
nou7
ngiauh
moh
luiˋ
liòng
liu7
lib
kiaˇ
ip
huan
hop
giongˊ
giah
giab
early
dinˊ
dem
chēⁿ
cau
bún
bus
bod
archive
YOSHIKI
Window
Warning
WSBL
WNBA
WBSC
Verlander
Un7
Tô
Theh
TW301
TIFA
Sullivan
Stock
SeN
Saab
SS501
SOHO
SNG
Rossi
Robertson
RR
Popu
Poly
Pian3
PhoaN3
Perry
Pence
Op
Mon
Mason
Lun
Lowry
Loo
LNG
Khò
KONG
KDE
Juliet
Jackie
JS
JET
Hāi
Hou
HOUSE
Gross
Gin
Gil
Gerrit
Ga
Fresh
Franz
Fish
FP
FE
Embiid
Elsa
EM
E4
Def
Cut
Creative
Costa
Chiâⁿ
Candy
CHUN
CCC
Buy
Butterfly
Bu5
BIS
Ave
Area
Ada
AND
9300
2395
2250
2160
1712
1708
1665
1606
1549
1453
1452
1438
1421
1399
1328
1156
1129
1099
1093
1018
1003
081
062
044
##PI
##OO
##Me
##MO
##ION
##CK
##AD
##2000
##이
##ター
##よ
##ぎ
##ن
##т
##о
##ä
##uri
##town
##tas
##out
##kh
##hou
##gu
##ese
##erg
##ela
##day
##dar
ＮＳＡ
ＩＰＯ
ＦＤＡ
ＡＥＤ
﹣
魩
鎏
鍺
郜
郃
贄
袤
蛞
猫
氚
榘
楦
枱
愨
壼
埸
嗪
呌
リ
ànn
zone
zhang
vog
via
tòe
tòa
tsù
tsua
taˋ
summer
soân
siàn
sienˋ
shot
several
seen
rhinˋ
póo
pui
poān
political
paiN2
niˇ
ngoiˊ
ngiauˇ
ngaiˋ
mung
leuˇ
layer
la2
kâm
kuanˇ
kah8
kW
jiedˋ
inn7
hiung
hangˋ
giungˋ
few
dongˊ
development
damˇ
daiˋ
close
chiuˇ
chiong7
bóe
bed
bau
among
album
aiˊ
Zuckerberg
YMCA
XB
X5
Wayne
Viktor
Val
Tàu
Travis
Tiau
Think
Things
Telegram
Tara
Tar
Suzuki
Soè
Source
SiuN
Shine
SIHH
SAS
Ruth
Riot
Reserve
Raw
RAID
Pou7
Pierce
PiN5
Phi
Phang
Perez
Patricia
PPM
PCR
PARTI
Oa
NTFS
NE
Mou
Motorola
Manu
Mackay
MIX
Leng2
LOL
Koān
Koan5
Kia
KKTV
KH
Julio
Insider
Imperial
IR
Harvey
Hap8
Han7
Haih
HDR
Gu2
Grey
Gregory
Gregg
Gran
Gas
Gallery
GDR
GAP
GAME
Fine
Finance
FIA
ECO
Donovan
Direct
Cultural
Château
Choâ
Child
CBC
Boys
Boeing
BenQ
Armour
Ar
Andreas
Alexis
Ala
Akira
ANA
AFI
35B
300ER
2344
1726
1515
13000
1235
1218
11K
1175
1097
1034
074
041
019
##RT
##OR
##MI
##LL
##IM
##ヤ
##ی
##ø
##win
##via
##und
##tia
##rum
##ped
##pan
##olo
##nti
##min
##ized
##ila
##ien
##ical
##ere
##dor
##dis
##cat
##book
##aya
##ann
鼊
鰾
輋
褙
纈
磧
硈
畦
玘
玎
烟
淶
淝
洧
汆
櫫
槎
擽
擻
撟
愴
惆
强
対
嘞
勣
儳
倻
佺
ミ
々
†
„
§
zhog
zheˋ
zangˋ
whose
vivo
vangˋ
tūn
tso7
tso
tshng
tshiâu
support
soaiN7
siak8
shopping
shop
sense
oeh
oaN
medˋ
lodˋ
liāng
lip
ledˊ
koaiN3
international
hòo
hòe
hãh
hang2
ham2
gud
gimˋ
giangˋ
geng2
find
dod
cud
common
ciiˊ
child
chhiunn7
chauh
chaih
ceˇ
bra
book
biˇ
aˇ
ai2
ZARA
Wojnarowski
Wiki
Where
Wan
WS
Versace
Ut
UBER
Tê
Tolkien
Thêng
Thé
Theresa
Thai2
TMA
Survey
Solomon
Serpenti
SNS
SNCF
SIN
SAP
S7
Raja
Pure
Please
Per
Pablo
PF
PB
Oeh
Oan
OHCA
Nái
Nvidia
Northern
Nine
NOR
NL
Melon
Lite
Lighthizer
Lange
LOW
LO
LMS
LLC
Kán
Koaⁿ
Kiah8
Kang2
KKTIX
Joan
Jeter
Je
Javier
IFRS
Horford
Hg
Have
Harold
Ham7
H1
Gilbert
Giannis
Gates
GameSpot
Farm
EXILE
EPS1
Dong
Diaz
Devin
Denis
Damien
Dallas
Dale
DU
DBU
DATA
Creek
Coupé
Chiaⁿ
Chhou2
Chhek
Chhau3
Cherry
Century
CON
CFIUS
Buck
Bou5
Berkeley
Bah
BBQ
BBB
Ashley
Anglo
Administration
8B
8900
70C
6269
5D
2GB
2206
22000
16GB
1696
1663
1594
1464
1386
1365
128GB
1224
1173
1112
1069
1056
1043
1006
073
042
##To
##NO
##N2
##900
##001
##ès
##worth
##tre
##star
##sse
##pin
##oto
##ock
##nto
##nic
##nen
##n5
##mas
##lt
##kel
##iya
##ings
##ging
##ef
##dt
##dge
##ction
##bury
##bach
ＴＤＲ
Ｎ
ＭＶＰ
ﰀ
黄
鐶
錞
郯
蹽
蹉
諞
肓
羡
糍
篪
竽
稹
盍
畈
珙
牂
瀁
滒
湣
汩
榊
撎
掔
怣
徭
幃
嶝
妘
圗
め
çh
ãh
zui
zid
zhoiˋ
zhanˋ
zanˋ
ye
ver
turn
tsìn
tsàn
tsu2
tsió
tshiu
tshiah
travel
tiäm
thoo
tax
store
sih8
ps
program
president
pió
par
pang7
ntpc
nia
ngoˋ
morning
lōo
liah
liab
leuˋ
leb
kuann
kiāu
kit
khuiN3
khaN
je
il
hānn
hóe
hm7
hangˊ
gān
guˇ
giug
getting
function
foˊ
energy
due
demˋ
cogˋ
châu
chhiâu
brain
boˋ
bio2
Ze
XI
Vi
Valve
Transport
Train
Thor
Theo
Te5
TLH
T4
SÓ
Study
Scheme
San3
STB
Rubio
Round
Roland
Rivera
Ride
Return
Read
Rd
ROT
R4
Prix
Phoenix
Pet
Paiwan
PIECE
PIC
OZ
OBE
NI
MÁ
Modi
Maya
MarketWatch
Mae
MU
MO
Luka
Lisp
Ling
Lih
LI
Kun7
Koa3
Kickstarter
Keep
KaN
K1
Isaiah
IPS
Hõh
Hyper
Hoé
Hitler
Hell
HOME
HE
Grande
Gomez
Glenn
Giuseppe
Gian2
Gi
GOÁ
GHz
Forest
Focus
Firmin
Ever
Ek8
EE
Dual
Dreamcast
CoV
Cinema
Chhoā
Chart
Chai5
Carol
Carlotta
Canal
CSI
CMOS
Books
Bailey
Aviation
6900
5s
3576
3456
3260
2603
2060
1706
1678
1476
1376
1337
1321
1294
1285
1262
1248
1236
1207
1198
1187
1152
1089
1075
1072
1065
1054
1037
1027
069
039
015
##RD
##NT
##DS
##CS
##Ｈ
##ダ
##び
##さん
##wi
##ward
##ven
##tos
##tone
##ries
##ox
##ole
##og
##ms
##mark
##lee
##ile
##head
##gun
##gate
##bility
韁
鈅
郷
輥
踱
跖
蓿
茼
笳
碸
碭
玨
猗
狌
氖
棨
桱
揾
掗
挕
廕
庖
嵯
崵
倜
佻
マ
して
õh
zoˇ
zhuˇ
working
value
tv
tsó
tsái
tsiuh
tiah8
thun7
thia
sp
siàng
service
sea
rhe
ra
qinˊ
pông
pong5
phauh8
oe2
nuá
nu
nothing
noa3
neˋ
move
miaN5
match
mar
mama
liuˊ
lemˇ
lad
koai2
kiâu
khī
khue
khiam2
ju
icash
iaˋ
iN3
hope
hiaN2
gāng
göng
groups
feel
dienˊ
dauˇ
cunˊ
coiˇ
chìm
choê
chhiaN
cedˋ
bug
better
believe
begin
ball
action
WoRMS
Wai
WM
Vera
VCM
U15
Tou5
Timothy
Thi
Table
TN
TLS
TK
Shopping
Shi
September
Santos
Sankey
Sandra
SIÀU
S9
Río
Rodney
Rh
Reed
RIM
Que
Pujols
Primary
Pocket
Passion
Paradise
P2
Os
Ol
Nowitzki
Netscape
Navarro
NYMEX
NOT
Moê
Mono
Momo
Mills
Micron
Memory
MeToo
Marin
Malone
Major
Mag
Mach
MUCH
MCU
Lê
Lock
Loan5
Lo3
Liok8
Liberty
Levi
LL
Kuso
Ku2
Joshua
JYJ
IPv4
IO
IB
Hóng
Houston
Hiân
Hai
Gân
GNOME
Fall
Em
EMS
Dutch
Dante
DFA
DAY
Circle
Chian3
Chheng7
Captain
Brook
Br
Baseball
Bang2
Ara
Anime
Album
9100
2890
2367
2201
1694
1668
1543
1465
1455
1447
1407
1406
1311
1282
1208
1168
1167
1163
1123
1114
1095
1063
1039
1015
1009
1007
094
083
077
068
061
045
027
0075
##LY
##KO
##IE
##GB
##CI
##400
##そ
##š
##ín
##water
##vis
##val
##urg
##uan
##u7
##ssa
##rg
##ras
##osa
##nger
##nder
##k8
##ize
##hl
##hip
##ear
##dle
##can
##aro
##ally
##aki
Ｉ
洞
樓
이
黠
隷
銪
鈃
醌
跂
讎
謅
箅
笞
穰
疔
瑢
熗
潗
沺
樫
昺
攕
慤
慜
徇
哶
劼
効
む
Ǹg
zunˋ
zooˆ
zoo
tut
tsān
tsân
tsuh
tsoh
tog
tim7
teuˊ
teenˇ
studies
sleep
siän
sioh8
sheu
series
scale
ro
rhong
rate
piog
phún
phi5
outlet
noinclude
ngian
ne5
menˋ
member
ly
living
link
liam3
koh8
khoe5
khiat8
kamˆ
juā
jp
joe5
jiông
iang
huānn
houN7
hiù
hiouh
hiongˋ
hienˇ
gäng
growth
gooˇ
gian7
fuˋ
front
fanˋ
factor
duˆ
dunˊ
donˋ
demo
content
chhí
chhoe5
chaˇ
cf
beta
bauˊ
bank
bang3
XII
XF
Woo
Win8
WP
Vice
V3
V10
UI
Tsa
Tri
Thomson
Then
Text
TSA
TOK
Sun3
Stern
Siám
Shirt
Shaw
SeN3
Ronaldo
Reggie
PowerPC
PeN7
Paper
PPP
Olivier
Oe5
OBI
Note7
Nash
NAT
Moss
Mookie
Monte
Monica
Monday
Moa2
Mine
Mexico
Maurice
MP5
MH17
Lynn
Luna
Liú
LT
Ká
Khong3
KITTY
KAT
Johann
Jobs
Jared
JPM
Iông
IÚ
Image
Iguodala
ISM
IFA
IBA
Hub
Holland
Hardy
Hank
Hami
HUSH
GmbH
Giâu
Garena
FOR
Extra
Every
Ernest
Edgar
Das
Dara
Daae2
DRAGON
Cleef
Chúi
ChhiuN7
Chamber
Cato
Cathedral
Casey
Casa
Carroll
COF
CNS
CDMA
CAT
C5
Bright
Biâu
Bieber
Bee
Balance
BOY
Artist
Ag
Ad
Abraham
APS
AFC
5900
1716
1691
1483
1456
1435
1413
1405
1356
1334
1327
1304
1291
1278
1272
1258
1226
1219
1185
1155
1116
1107
1086
1035
1012
063
054
043
021
##OP
##IP
##IF
##DB
##Co
##Ｗ
##н
##ρ
##war
##ug
##ub
##ual
##rio
##ont
##mia
##lai
##iro
##ime
##ika
##i7
##i3
##ep
##elo
##del
##das
##cht
##bert
##back
００
利
連
串
鱻
鬪
鉢
逡
躦
蛘
蛔
羋
稉
焐
殻
椴
攲
掂
彅
廸
嶙
尔
妣
呅
傚
傕
仡
ㄘ
ハ
デ
じ
かん
え
あ
κ
Σ
íⁿ
zuiˋ
zongˇ
zhuˊ
zhonˋ
wind
vaˋ
tsìng
tshe
tooh
tiak
theN3
soan5
siugˋ
siinˊ
siauˋ
shanˋ
sexual
scope
released
pro
port
phāiⁿ
phoan
nui
ngiogˋ
nauh
might
lueh
khuá
job
information
image
iKON
hoh8
hito
hiann
green
girls
gim2
gienˋ
geˋ
fug
fonˋ
fans
example
ex
diˇ
church
chid
chiat8
chhoàn
cat
buë
bunˊ
boiˋ
become
added
Yuri
Yourself
Wilbur
WEF
VOCALOID
V1
Tyson
Total
Thè
Thok
Test
Terra
Tauh8
Target
Tab
TEU
Su5
Steel
Sprint
Spin
Soo
Sogo
Sino
Set
Ser
Sel
Salt
Sainte
SOS
SEED
SCO
Rover
Rondo
Rene
Record
Razak
Range
RUN
Pun
Produce
Photo
Pangchah
PCH
PASS
OGS
Nono
Nicola
Nice
Neymar
Mir
Mina
Mazda
Mara
Macbook
MUJI
M14
Luck
Literature
Lena
LTPS
Kia3
Khok
Kho3
Kapu
KG
KANA
Ja
JST
IH
Holt
Guán
Greinke
Glasgow
Giry
Ghost
Gaming
Gai5
GOOD
Friend
Franklin
Finland
FW
Evolution
Es
Emerson
Edwards
Dynamics
Diana
Credit
Chu5
Chhiok
Chhim2
Chaumet
Chapter
Catholic
Carlo
Cal
CTV
CGI
Byron
Burke
Brent
Break
Betts
Berry
Beal
Banda
B4
Aqua
Antetokounmpo
André
Alto
APA
ADS
A13
6239
60M
5GHz
5656
30K
3083
2ch
2499
2492
2354
1719
1698
1692
1508
1436
1424
1366
1335
1279
1263
1261
1243
1214
1142
1141
1113
1085
1029
1017
1013
##SH
##PC
##NI
##N5
##LO
##BB
##의
##バ
##ぶ
##ร
##υ
##ć
##ties
##side
##oz
##orn
##of
##nus
##non
##lie
##lian
##key
##ions
##ida
##hal
##gon
##gie
##ett
##cho
##chen
##ati
##ali
ＯＥＣＤ
３Ｃ
兩
鼕
阳
赧
諴
覡
衾
腡
礽
硨
炰
気
樾
槺
槙
旖
擤
拏
弍
㤕
ウ
ゆ
〝
И
Е
η
zunˊ
zeu
xxx
voˇ
tsê
tsiap
tsheh
thì
thou
things
sü
suˇ
sug
siäng
sabˋ
policy
piànn
piaN
page
ngad
m²
liug
kiss
kia5
khîng
kanˊ
kangˊ
jiâu
jinˊ
jiauˇ
iongˇ
iWatch
hîng
hìⁿ
huē
hospital
hauˋ
giuˇ
gio2
fongˇ
fast
euˋ
eMule
cut
ciiˇ
cham
blood
blogspot
behind
beat
article
airport
Zealand
ZERO
Yong
YF
Wine
WeMo
Walton
Very
VOGUE
Turn
Trout
Torres
Thâi
Television
Tak
Tainan
TE7
Suica
Stevens
Stefan
SiP
Sheon
Santiago
SOLO
S10
Ref
Rapper
Rajon
Rad
RNG
Qi
Pì
Puigcerda
Plant
Phan
Personal
Palazzo
Pad
PJ
P4
OI
Nicole
Nico
Niau
Nazi
Nano
Najib
NF
Moe5
Mnuchin
Mix
Middleton
Mel
Mayer
Match
MMR
MISS
Lillard
LUXGEN
Kím
KÈNG
Korean
Komod
Keller
KW
KPMG
KL
K6
K5
K3
January
J12
Italia
Industry
Ian3
ISA
INTERPOL
Hunt
Hublot
Hian2
Gōng
Got
Geneva
Gene
GU
GOT
Foods
Fold
Fate
Eve
Eugene
Escape
ESA
EL
Dy
Dominic
Debian
Dalton
Cousins
Cora
Columbus
Colspan
Cheh
Che2
Chao
Chad
Canadian
CODE
Bāng
Bông
Bur
Bun
Bosch
Bomb
Beck
Barclay
Bach
BMG
BAR
Atom
Anton
Aero
ACC
ABB
A12
3250
2313
2227
2150
2121
2046
1608
1596
1516
1488
1437
1383
1367
1312
1237
1231
1189
1134
1128
1082
1081
1068
1067
1055
1022
057
038
030D
0308
028
026
000rpm
##YA
##MC
##Ho
##HO
##EM
##０
##デ
##า
##м
##ý
##zed
##stra
##sar
##rk
##pt
##ota
##log
##lah
##km²
##ima
##ence
##een
##board
##bat
##aurus
##ag
ＰＴＴ
Ｊ
北
冷
更
鼱
鴝
鰇
鯷
顰
雎
陜
録
鈰
踪
荅
芪
粩
籙
簝
簋
磲
瑱
琼
澶
溟
洹
氡
摕
屧
寔
娌
妯
坻
坔
叵
僳
倀
亶
ㄝ
バ
れ
び
Холшевников
ái
ziongˋ
ziinˊ
zan
xiagˋ
wifi
why
version
uk
tshàu
thought
site
siouh
siib
response
reading
píⁿ
player
phî
phue
pang2
oBike
nou
ngiˋ
ngaˋ
moment
moi
macOS
lot
lod
loa
lead
ld
lamˋ
kuai
koaiN7
kienˊ
khe5
kangˋ
issue
ik
hr
haiⁿ
gooˆ
given
foot
fat
fair
fad
enough
deal
cue
course
countries
coming
chiunn7
chiauh
chhōe
chhenn
ccccff
cauˇ
bou3
boe
bien
above
YOUNG
XC
Want
Vanessa
UCC
Tàn
Titan
Tayyip
TUN
Soàⁿ
Sonic
Sm
Sierra
Sharapova
Sha
Sand
Sak
SEVENTEEN
SDF
Ru
Roll
Regan
Qt
Pt
Pride
Pra
Poâⁿ
Pie
PN
Orleans
Observatory
OO
ODM
Nora
Nolan
NOVA
NES
Mueller
Motion
Moa5
Merry
McCarthy
Mariano
Manila
Mama
MTA
MAMA
Lamb
LIĀM
Kiò
KIMIKO
Jill
Jen
Isaac
IMDB
ICC
Hon
Heritage
HeN3
H3N2
Gîm
Gek8
Gee
GUI
GIRLS
Frost
Ferguson
FTC
FREE
Estate
Ernst
Enrique
Drummond
DisplaySearch
DeAndre
Dame
DRAMeXchange
Course
Computex
Clear
Choat8
Cho5
Chiàⁿ
Chian5
ChhiuN3
Carbon
CLUB
CAR
CAP
Bug
Booking
Bok
Bel
Beijing
Beckham
BIOS
Authority
Athlon
Aramaic
Any
Anita
Analysis
Allah
Ai5
Affairs
ARA
AMX
ALA
994
8A
6180
6121
5L
25T
24K
2379
1739
1482
1473
1449
1429
1425
1394
1385
1377
1364
1319
1264
1212
1199
1166
1153
1151
1135
1132
1096
1074
084
058
##SC
##Li
##IL
##GO
##700
##1000
##２
##プ
##ヌ
##ぐ
##ي
##ل
##ا
##γ
##ö
##uy
##uma
##ugh
##ture
##the
##tch
##ric
##pen
##ome
##old
##nos
##ming
##king
##kap
##jan
##ip
##hill
##ech
##dra
##cki
##ben
##atic
##ado
𠻞
Ｒ
見
鶓
鯀
髡
闞
閲
鎇
鍚
酆
迨
趜
貉
蠐
蓴
胮
獪
犄
燐
灕
泏
楽
梏
揩
捭
慳
愾
嶷
嵵
埆
垚
啲
佞
亘
㝗
ㄊ
②
Г
ä
ziab
xiedˋ
voice
var
until
tòo
täi
tsáiⁿ
tsiūnn
tsap8
tri
title
thuh8
teb
taiwanlottery
tab
säi
sngh
shock
shiˊ
rule
realme
question
pinn3
pick
phē
mono
lionˇ
lab
kongˋ
kieuˊ
kha7
jim
ja
iangˋ
hours
honˇ
homˋ
hk
having
gro
giemˇ
gas
edge
dad
dL
current
cod
cienˋ
cid
china
chim5
chhiunn3
chang3
chad
capital
build
block
bi3
bbinˇ
average
asked
already
along
adˋ
ZenFone
ZI
YU
XT
Woman
Wise
Warner
WU
WARS
Uniqlo
USB3
Tuesday
Trent
Thoat
Theater
Teresa
Telecom
Tatum
Tank
Su2
Sng3
Sià
Single
SiN3
Sergei
Saturday
SSL
SCI
Rule
Rise
Recep
Rama
RP
RH
R8
R3
QDII
Pier
Pantone
Outlet
Orlando
Object
OST
Niu5
NHL
ND
NBL
MySQL
Mister
Mattau
Many
Madame
METRO
MBS
Longchamp
Lióng
Lil
Lan
Lak
Ladies
Kimberley
Kei
K11
K10
Judge
Jonas
Jesse
Jayson
Jasper
JULY
IPv6
Hàiⁿ
Hogan
Hiu
HERO
Gí
Guard
Goneril
Gok8
Gen
GA
Fraser
F16C
Erdogan
Era
Eats
EPS0
Dublin
Drama
DeMar
Dash
D4
Chēng
Chhài
Chhuì
COSPLAY
CHANEL
Bū
Bê
Booker
Bong7
Blues
Bishop
Better
Belle
Believe
BEN
B9
Assembly
Antoine
Alexandre
Ain
Abdullah
ATA
APU
A321
A21
7100
5347
5346
3009
2F
2707
2458
2377
2347
15ml
1518
1467
1459
1375
1336
1325
1211
1204
1203
1191
1119
1019
079
##UM
##TY
##RY
##RU
##LS
##FI
##901
##モ
##テ
##з
##β
##ə
##û
##î
##É
##ware
##tto
##top
##time
##thi
##sco
##saurus
##point
##nne
##iu
##ique
##ille
##illa
##ield
##gn
##fs
##fo
##fen
##eu
##bet
##ato
##ark
ＲＣＥＰ
鯝
髹
饉
隣
鐧
銠
鈪
蹻
訄
襉
蚱
蓖
翍
縞
篝
碚
癭
疶
煚
烌
濓
潲
懃
愔
広
庀
幪
尢
埒
嘣
勰
别
傈
倲
乭
ㄣ
ㄐ
フ
コ
с
Н
Лотман
àng
works
vien
vad
tsiánn
tsang
tiā
tiò
tiam5
tháⁿ
thong7
theN
technology
teN
tRNA
studio
structure
stage
speech
sky
sahN
running
ratio
puˊ
puãh
published
project
poan3
please
piˊ
pizza
phuãh
phone
phoa
phian5
peace
peN
pauˋ
oé
oâ
oaⁿ
nng
ngau7
mud
military
lūi
liok
lenˇ
later
languages
koeh
kiuˇ
khái
khiu7
kaˋ
jiamˊ
island
ine5
hîm
huh
hoaN2
hiok
him5
hair
guân
gangˋ
fight
fidˋ
feat
fall
doo
cool
chā
chhé
chhiâⁿ
cheN7
character
challenge
cells
catch
campaign
break
board
bill
bau2
analysis
Zara
Yun
YOYO
Wallace
WI
WAR
Var
USMCA
Tēng
Treaty
Tng7
Tho2
These
Thang3
Taxi
TPN
TEAM
Swing
Sunshine
Sue
Sud
Suarez
Strasburg
Stanford
Siâⁿ
Sho
Shawn
Sh
Sap
SUP
SUN
SMG
SHA
Rush
Reynolds
Reyes
Resort
Racing
Pian
Philips
Peak
Pbike
Parliament
PTSD
PRADA
Other
NÎ
Nan
NJ
Morton
Miami
Manager
Maison
Lynch
Ludwig
Lok
Learning
Lamar
LULU
LB
Ké
Kh
Kerry
Kemba
K9
Joint
Joah8
Jiat8
JM
Israel
Islamic
Inside
IUPAC
Hòng
Hz
Hermann
HM
HKA
Gulf
Guerrero
Giah8
Gia5
Gaon
Gang
Gala
Flower
File
Ellis
Eli
Electronic
Edinburgh
EMD
E9
Dry
Dorothy
Donut
Damon
DVB
DN
DEC
Cover
Comp
Civil
Chhiū
Chhat8
Chham2
Cheung
Candidius
CITY
BuzzFeed
Britain
Berlin
BM
BLACKPINK
BJ
AX
ATS
ASML
APPLE
AOL
5E
3406
2439
2392
17000
1484
1416
1412
1410
1395
1372
1355
1347
1288
1255
1232
1178
1131
1118
1117
1105
1083
1048
1047
087
##UN
##TP
##Ra
##OT
##HE
##FL
##BC
##マン
##っ
##あ
##л
##ː
##wer
##uli
##tri
##tle
##sz
##sor
##sion
##rpm
##ress
##ose
##osaurus
##ori
##oon
##oma
##oid
##oc
##nie
##nh
##mont
##mic
##lly
##kar
##inger
##ind
##hy
##hop
##ein
##eau
##dos
##com
##cle
##cing
##aa
𢺴
ＮＨＫ
ＩＰ
ＣＥＣＡ
立
鶥
鴯
飧
鞣
鋃
鉭
鈮
逹
豳
謇
菰
窓
灯
洳
桎
来
揠
愖
嶧
嶗
尕
媜
姉
奥
唳
叹
䘼
㴙
キ
だ
ける
zhu
wu
vuiˇ
vedˋ
um
tânn
tsün
tshâ
tshu
tied
thng7
sóo
shiedˋ
shall
search
script
rock
rhang
poly
pogˋ
poann3
pm
plan
pixnet
perfect
park
pa7
ol
ngou5
natural
minutes
minor
micro
master
līng
looking
least
leader
kuiˇ
kill
khàng
jied
iTaigi
honˋ
hmˊ
hmh8
hm
hiN
held
hands
goes
fin
father
design
della
dei
dau
cross
ciogˋ
choo
chhiunn2
ched
camˋ
bùn
battle
baiˊ
attack
announced
Z1
X3
Wo
Westminster
Wake
VOLVO
Update
UDP
UCI
Tumblr
Tsu
Trinity
Transit
Tracy
Toan3
Tinder
Theory
Teixeira
Tee
Tablet
TRAMP
TBTS
T16
Strategy
Still
Starbucks
Siaⁿ
Semi
Sarkozy
Santo
Sang3
Samsonite
Samantha
Safety
SCP
SAR
SAM
Rosenthal
Rebecca
Ramos
Raf
Pseudo
Protocol
Protection
Poat8
Pico
PewDiePie
Paolo
Pang3
PID
Number
Nuevo
Nuclear
Nikon
Navy
Nate
NISSAN
NEXT
Mora
Mira
MiG
LoveLive
Lei
Káⁿ
Krystal
Kra
Khàn
Kara
Kane
Kana
Kai2
JĪ
Ju7
Josef
Jong
Jilimpo
Jae
JE
Iā
Ivy
Ir
Idol
ITU
IMD
Hàu
Hua
Hotels
Honda
Herald
Haruko
Had
GoPro
Gloria
GitHub
GTI
GR
GLAY
Frida
Francesco
Formosan
Flip
Falcon
Faith
FRS
FK
Excel
Escobar
Eng3
Elle
DES
DAN
Cory
Complex
Communications
Commodore
Clay
ChiaN
Chhú
Chhâ
Chhiú
Catolonia
CUT
CU
Bōng
Bvlgari
Bulgari
Brain
Bour
Boo
Bonnie
Bond
Bir
Beethoven
Beatrice
Bautista
Bas
Bala
Audrey
Aspire
Arpels
Annie
Alma
African
Abbey
ASTRO
AO
ACM
7900
4174
3105
2885
2650
2520
2450
2388
2362
2340
1557
1479
1446
1373
1345
1322
1295
1273
1254
1241
1223
1194
1186
1171
1157
1121
1109
1084
1073
1061
1051
10500
1045
##UR
##MB
##KM
##Ha
##FF
##BI
##123
##パ
##たい
##ов
##ка
##ι
##ε
##ŋ
##zon
##xi
##xa
##wn
##uta
##urus
##uer
##ses
##ret
##ree
##quin
##oft
##nna
##ndi
##n3
##las
##iva
##ill
##ides
##hua
##gel
##fin
##eta
##ery
##ern
##cin
##bon
##bal
##ator
##ame
##aire
##aN
ＴＶＢＳ
ＲＯＣ
老
黐
鴆
驀
釆
逑
謼
蕤
蕓
聼
聒
翬
総
窰
盦
皝
痿
琹
狛
橂
横
柊
柃
枳
机
実
変
垓
嘅
刘
僊
ㄑ
へ
yet
visit
tànn
tshäi
tshiò
tshiànn
tree
tongue
thìm
thun5
thoā
tea
taking
taken
survey
street
soˋ
soi
shiuˊ
saw
root
rhongˋ
rhimˋ
region
rRNA
profile
private
present
poˋ
poeh8
pienˇ
phu7
phai2
pangˇ
pain
os
oa7
ngion
ngiamˋ
neu
nationalism
n2
mongˋ
mode
memory
mark
makes
longˊ
leg
leebˊ
kiu7
kih
kiad
kiab
kaiN
iog
inter
important
iPhone7
iMac
grand
goeh
god
generation
gan5
extra
drive
dis
diauˋ
dai
core
complex
cibˋ
chhiok8
chhiann3
chhia5
biongˋ
became
bangˇ
YAMAHA
Wheeler
Wedding
Wal
Wa
WOW
Va
VCSEL
VAR
VA
UR
Transfer
Tra
Tia
TJ
TFSI
Sto
Stephanie
Ste
Sri
Snapchat
Simple
SiN
Shock
Sensei
STATION
Royce
Race
RG
Quebec
Prayer
Popovich
Poah8
Playboy
Pitt
PiN7
Photoshop
Penn
Path
Owen
OpenGL
Oe
Oan3
Oan2
ORIS
Norway
Noir
Montreal
Message
McCartney
Maxwell
Math
Mari
Lōng
Louise
Led
LDL
Kńg
Kun5
Koán
Kiông
Khiân
KING
Journey
Jit
Jiau5
Jersey
Jennings
JU
JA
Iraq
Industrial
IFPI
Huì
However
Honolulu
Hobsbawm
Hng7
Highway
Heinrich
Hammer
HaiN3
HTML5
HQ
HF
HEY
HELLO
H3
Gur
Gratiano
Goodbye
Ginobili
Gina
Germany
Gerard
Geoffrey
Gal
Gaelic
GAY
Frances
Fr
Finn
FinFET
Fin
Fernandez
Feel
Faye
FHM
Everything
Eu
Eastern
ETN
Dunn
Dun
Door
Democracy
DeRozan
DeMarcus
Dam
Dal
DLL
DHL
DDR4
Cy
Cristiano
Codex
Chō
Chan2
Cam
Bull
Build
Brother
Boyz
Bent
BMP
BLUE
BANG
Ava
Atlantic
Apa
Ant
Animax
Alain
Aba
ANN
3545
2850
2801
25mm
2080
1a
1491
1485
1431
1428
1418
1414
1408
1398
1396
1393
1374
1323
1307
1287
1283
1274
1266
1251
1239
1217
1192
1145
1091
1059
1036
072
031
023
##PT
##PP
##ワ
##スト
##у
##с
##ά
##ï
##yr
##wal
##var
##uda
##ther
##sus
##sho
##nor
##nas
##mes
##med
##light
##lic
##lam
##idae
##iat
##hs
##hr
##gle
##eni
##elle
##ean
##cio
##bel
##bee
##alo
##a7
𢯾
ＭＶ
ＣＩＡ
ＣＥＯ
鷓
鬬
闋
鋨
鋆
葜
苾
联
縹
綪
絛
篳
笮
秈
瞽
癰
瘼
焓
烔
浥
泚
桷
条
朒
抝
愎
忖
庥
嵬
寗
埴
囈
嘢
喰
ㄖ
ㄒ
ド
って
①
Б
μg
ím
ziibˋ
ziau
zhiˇ
zhag
zero
uànn
uni
tsãp
tsoân
tsoan
tshinn
try
tro
tongˋ
thīnn
thuànn
sīng
sánn
strong
step
soft
sn
siùnn
six
siuN5
shangˋ
sauˇ
saiˊ
ru
rhedˋ
rhagˋ
references
pçh
piogˋ
pien
piann3
pheN
period
others
oN3
nt
noˇ
nice
ngauh
message
medical
liam2
leohome1971
kuiˋ
kiug
kinˊ
kiauˋ
jo
jiˋ
iogˋ
iPS
hih
h3
góan
guangˊ
giang3
giamˊ
friend
foreign
force
fish
faˆ
eyes
everything
events
engine
economic
dunˇ
dress
doing
discovery
deuˇ
dagˋ
cost
coffee
chái
chiúⁿ
chhoeh
bilibili
biangˋ
beautiful
ar
aiko
Yen
Xi
Xe
Whitney
Weather
WeChat
WB
W3C
Vegas
VO
VM
VE
Ute
Uncle
UX
UEFA
Tî
Towns
Toshiba
Tiõh
Ting
Thu
Thn
Third
Thing
Thau2
Thailand
Taco
TTL
SoaN3
Sng
Snapdragon
Sigma
Sher
Senior
Scherzer
Saw
SNK
Route
Rita
Riley
Restaurant
Rapid
RAW
Qu
QE2
Q5
Q10
Pub
Pu3
Ptt
Professional
Porzingis
Pont
Pi3
Petro
Pelosi
Pearl
Paulo
Para
Palmer
Pa3
PPT
PAUL
Outlook
Ou7
Ortiz
Oriental
Ontario
Oil
Ní
Niú
Nana
Nai
NTU
NTSB
Myers
Minor
Mille
Mill
Mid
Micheal
Meyer
Marion
Margarita
Mala
Madonna
MQ
MIDI
MCM
M60
Lun3
Lancer
L3
Kristaps
Koo
Koah
Knowledge
Kita
Kip
Kim3
Khut
Karim
KN
K4
Ju5
Joa
Iáu
Infinity
Indiana
Icon
Iau5
Holmes
Hióng
Historical
Hek8
Ham5
Halle
HY
Gustav
Gundam
Grab
Gim5
Giitchi
Giau5
GIRL
G6
Funk
Foster
Form
Fa
FDI
Executive
Est
Ellen
ESO
EBITDA
Dé
Dunhill
Duc
Dor
Doherty
Diogenes
Des
Date
DalaiLama
Col
Choi
Chia7
Chhoe
Chhi
Chh
Chemical
Chat
Chan3
Cha7
Caesar
CUP
CK124
Bud
Bing
Bennett
Be5
Bath
Baptist
Bal
Bac
BN
Altuve
Allison
Alexandra
Alessandro
Albee
Aki
Ahmad
Agreement
Acer
AN3
6505
45000
3682
2314
2048
194001
1458
1397
1362
1354
1349
1348
1316
1302
1293
1286
1284
1269
1244
1222
1196
1176
1148
1087
10800
1076
1053
006F
##TION
##RC
##N3
##Mo
##MAN
##IO
##III
##HT
##GW
##De
##DR
##AA
##111
##６
##バー
##ネ
##ゴ
##イン
##د
##ɛ
##ña
##zu
##uth
##uro
##uo
##tv
##ters
##ssi
##sat
##rth
##ridge
##ral
##ott
##nik
##nel
##nae
##ments
##mal
##lea
##lation
##kie
##ios
##ike
##hone
##heim
##gne
##ges
##eum
##eria
##eb
##cast
##ative
##ail
𥴊
･
ＰＯ
溜
拉
麿
髑
鄄
踽
跗
覧
衹
蟶
蘗
藁
苶
臢
罣
緡
篁
竫
窳
秸
祧
睥
疍
歁
旃
捔
扴
并
幄
尙
圀
団
啣
哚
吲
卽
勱
僂
㧌
ㆷ
ㄩ
ダ
ふ
さん
け
É
zau
xiugˋ
wild
vongˋ
village
tōe
tsan7
true
train
toiˋ
togˋ
tiùⁿ
tiang
thiâm
tail
speed
soon
soann3
siin
siaˋ
siat8
sanˋ
rest
release
record
que
pân
production
pongˋ
ping
phoa7
pha3
pdf
paˊ
onn
om7
oiˊ
object
o7
nái
noa5
ngai7
ne2
mou2
means
lãt
lose
lioh
lio2
liauˇ
large
lambda
kuânn
kungˋ
kinn
khêng
khu3
jun
js
iãt
int
iPad3
hò
host
ho3
hiú
heuˊ
hannh
ha3
gam2
feature
fang
evidence
download
district
display
disorder
dio
cash
cafe
bring
bou
boiˇ
began
alone
ae
Zi
Working
Windsor
WR
WMF
WISE
WHIP
Victory
Vacheron
VJ
U3
Turkey
Try
Track
Tr
Tiap
Thun
Tennis
Taj
TDDI
Susu
Stoxx
Stoudemire
Sofia
Siang5
Sheikh
Screen
STEM
SEVEN
Rum
Row
Rosen
Rice
Railway
Rai
RSA
QRcode
Pè
Publishing
Pol
PTA
Oro
Originals
OaN7
Niu2
Nigel
Near
Naka
NOAA
NGT48
N7
Mài
Morey
Miranda
Mann
M1A2
LŪN
Leu
Leonardo
Lay
Lap8
Lagerfeld
LU
LAN
Kudlow
Kro
Kiki
Kidd
Kiam
Kheng
Ke2
KOH
Joanne
Joanna
JiN2
IuN2
Insight
IPTV
Hyundai
Hyde
Hut8
Homme
Hngh
Hng3
Hm
Hito
Heuer
Hathaway
Half
HaN5
Ha2
Greatest
Globe
Ger
Gem
GX
G10
Floyd
Ferdinand
Factory
FACEBOOK
Expo
EPFR
Dome
Disco
DREAM
DFT
DBC
D7
Cortex
Consumer
Connect
Coaster
Clo
Clarke
Clare
Cla
Circus
Christina
Chhiau
Chha5
Chamorro
Casio
CY
CPBL
Bul
Brooklyn
Bristol
Beverley
Being
Bed
Because
Barkley
Bam
BU
B8
Aroldis
Ark
Arizona
Alive
Alfredo
AVG
ASIC
ANSI
AKS
AAC
3658
3380
3026
2912
2609
2548
2545
2402
16A
1497
1463
1389
1252
1174
1161
1154
1147
1094
1080p
1057
1046
1026
078
029
004F
##VI
##TT
##TH
##ND
##AU
##セ
##ィ
##よう
##から
##ه
##д
##ва
##π
##x1
##vu
##vel
##urs
##ule
##u2
##tori
##tein
##rp
##rer
##qa
##ph
##onic
##ode
##ngo
##nch
##nam
##moto
##met
##los
##life
##lay
##jet
##ition
##ility
##ics
##haus
##gas
##end
##ema
##eck
##dus
##dine
##adi
ＯＰＥＣ
ﰓ
鴇
鳧
鰥
驩
雃
釙
鄜
遹
逩
躄
蹕
蛸
臃
繙
紈
竜
禩
碡
璸
浞
槲
挓
怔
峮
寳
宬
嫷
嫄
奅
俵
㪗
ㄔ
ル
った
îng
zhonˊ
zhongˋ
zhe
virus
tōo
tìng
turned
tsìnn
tshò
tshiàng
tshau
trying
trax
théng
thánn
talkpotato
sometimes
sod
siuh
situation
sion
similar
shog
shift
rhog
rhin
register
read
qua
pòaⁿ
puī
price
phoan3
phe7
op
nong
ngoi
ngiau7
ngangˋ
named
mudˋ
moon
mid
lö
liū
lik
lani
lady
kóa
kînn
kouN7
kids
kiamˊ
khâm
khuàinn
ih
identity
hôe
huänn
hiunn
hebˋ
gou5
goiˇ
gim3
foodpanda
fongˋ
file
es
eight
education
diu
dark
daily
cup
cungˊ
cp
contract
chungˇ
chhiàng
cheedˊ
chaN2
cen
biongˇ
billion
base
ay
apple
animals
almost
ac
Zoom
Zion
Yelich
Yak
Y1
Xs
Wil
Wednesday
WWF
WIN
WALL
Voyu
Vodafone
Vancouver
Ur
Universe
UF
Tîn
Tso
Tre
Trail
Toni
Thoe3
Techno
T6
Student
Species
Sophia
Slav
Skin
Sisley
Shirley
Shan
Shake
Seth
Scooter
Sb
Santana
SHE
SATA
SAI
Ré
Ro
Remix
Remember
Reg
Ramon
RMK
REM
Qaeda
QC
Proto
Promotion
Pradesh
Potter
Pong7
Plain
Pig
Piazza
Phu5
Phi2
Palais
PTS
PIN
P1
Origin
Opel
Official
Oa5
OMNI
Ny
Niagara
Ni2
Nest
Ne
NOKIA
NARS
N8
Muse
Moment
Minnesota
Mika
Mih8
Methodist
Met
Matteo
Maps
MIB
MEDIUM
Lemon
Lantis
LTD
LIN
Kàng
Kitchen
Khòng
Khris
Khoa
KV
Jung
Joaⁿes
JPG
JPEG
JL
JILL
JB
Irene
Innovation
Info
Industries
Ib
IZ
Hâng
Huawei
Hoân
Hood
Hoah
Heyman
Het
Henderson
Hayward
Haram
Happ
HU
H2
Goeh8
Gobert
Genesis
Garnett
GTO
GMT
Flynn
Florence
Fight
FG
ERP
Duterte
Duck
Driver
Dot
Dom
Dol
Director
Davies
Daryl
Daniels
DW
DSC
DRM
DOC
DK
DIA
DHA
D5
Cruise
Corps
Cookie
Continental
Colorado
Cold
Climate
Chún
Choa5
Ching
Chhi5
Chheng2
Chau
Carpenter
Cara
Camera
COSTCO
CMC
CFDA
CBE
Boone
Boom
Berluti
Beirut
Baltic
BLACK
Asa
Arte
Architecture
Animation
Anders
Alt
Ale
Alba
Agnes
AW
ASA
AIA
9A
8086
7D3B
720p
5k
50ml
4WD
2n
28000
2511
2349
2323
1MDB
1746
16C
1468
1391
1387
1384
1381
1351
1346
1329
1308
1296
1195
1181
1165
1143
1133
1126
1079
1077
1033
1014
##ZA
##Ti
##One
##IR
##FE
##A2
##５
##リア
##ダー
##ソ
##و
##ة
##ו
##к
##ía
##zan
##yne
##ying
##yc
##wy
##ving
##view
##vic
##ush
##ult
##ular
##stic
##stan
##shire
##sal
##oan
##mir
##mbo
##master
##ller
##lf
##horn
##hart
##har
##gram
##ffe
##feld
##els
##eli
##ele
##ect
##dd
##born
##ast
##asi
##amp
𩑾
ＣＤＣ
ＡＴＭ
復
鶺
鳯
髂
鐡
鏑
鉕
鉄
逖
跣
螿
葚
苄
舯
篱
笊
猞
猁
爀
淸
洨
櫳
槁
晋
捘
懌
廻
帯
墼
塕
凭
働
ㄓ
エンジン
そ
ρ
đ
ôo
òo
ØZI
Ö
zon
yourself
yes
website
tuî
tshuê
tried
traditional
thôan
thîn
teu5
ter
takes
started
spring
source
sng5
sign
shows
sho
shibˋ
shauˊ
semi
sar
return
receptor
qinˋ
pseudo
product
problems
played
plant
phànn
physical
phuè
oil
ngionˋ
nd
nano
mâ
museum
multi
moāi
moving
mog
modern
mobile
mng
mile
magˋ
lá
loi3
limˇ
likely
lem
khoaⁿ
kann
inside
ied
iad
hiuh
himˋ
hemˋ
hear
guanˋ
gra
giám
gamˇ
former
flow
enˋ
dud
dream
doesn
diauˊ
cs
chungˋ
chiann3
chiang5
chhuh8
chhoaN3
century
cauˊ
buiˇ
bear
auto
arm
ZIP
Yeah
Without
Westwood
Walis
Vocal
Vivienne
Vivi
Vis
Vinci
Verge
V5
Un5
Ugly
UFJ
Tsh
Tory
Tong7
Tiàu
Tian5
Thong2
Thau
Terminal
Tanya
Taka
TPGA
TPE
TE
TAKE
Syndrome
Springer
SiuN2
Simpson
Shanghai
Sexy
Seminary
Selection
Select
Search
Saya
Saunders
Sao
SPF
SET
SDK
Rouge
Rocket
Roadster
Replica
Randall
REAL
RAV4
Quinn
Quality
Pī
Political
Ping
Philippine
Philipp
Pennsylvania
Paula
POSIX
POSE
PCM
P6
Ou2
October
Ober
OSIM
OMEGA
OC
Nāi
Node
Niáu
Nitro
Nichkhun
Nguyen
Neu
Nei
Nathaniel
Nasdaq
NX
N4
Mé
Motors
Montblanc
Mona
Minecraft
Million
Military
Milagros
Mih
Maserati
Markets
Mana
MOS
LucasArts
Lounge
Li5
Letter
Labs
LX
LAB
Kàm
Kian7
Kenny
Kemp
Kal
July
Ju2
Johan
Joe7
Joachim
Jade
JOE
Isle
Into
IgG
IN7
IDE
Hōo
Hopkins
Hi5
Hen
Hector
Heaven
Hau3
Hasi
Hale
Guardian
Glo
Garrett
GE235
Freeman
Flora
Fitch
Fat
Falls
FTP
FIT
FAT
Extended
Ermenegildo
Edmund
Edison
EW
Dur
Duo
Dollar
DHC
Cr
Count
Competition
Commerce
Collin
Clarkson
Chìm
Christophe
Choo
Chho3
Chau3
Char
Chapel
Cecil
Canyon
Cancer
COP
COCO
CAM
Buss
Bu7
Brands
Boulevard
Boucheron
Barcelona
Bak
BTOB
B2C
Atlas
Allan
According
APT
AIO
AGM
A16
8044
6GB
6213
5388
4906
2AM
2750
2727
2456
2451
2410
2350
2207
2070
1H
194003
1671
1489
1443
1401
1378
1357
1332
1315
1257
1159
1144
1064
1062
##ZO
##TC
##SM
##OH
##Ma
##ML
##FS
##EP
##Da
##CD
##Br
##Ba
##401
##101
##ヂ
##ソン
##ひ
##せん
##ม
##م
##ب
##μ
##ă
##àn
##xo
##una
##ste
##set
##sche
##rm
##rat
##pu
##pho
##ook
##nge
##ndo
##mis
##mb
##lum
##lio
##kt
##kia
##js
##isa
##ior
##girl
##gin
##for
##fan
##eth
##core
##cker
##boy
##awa
##ations
##ated
##ass
##als
##ald
##aine
𣁳
ＯＴ
ＣＦ
ＡＣ
陸
頫
闥
鏃
郇
邽
躕
蹳
踟
蠊
螭
秭
砛
砒
瞨
畯
琄
氳
歃
欷
桸
拊
惣
崮
峋
娉
囗
嚦
勗
倥
伋
仮
㹴
ㄗ
ベ
テ
セ
では
しん
おお
zibˋ
zangˇ
xienˋ
weight
ul
týh
tshím
tsháu
todˋ
thôo
thiau5
term
teenˋ
suann
standard
spot
society
sem
security
rue
rheˋ
result
puânn
poˊ
poor
points
para
operation
ngái
ngiangˊ
nangˇ
luā
loss
liám
lin7
liaˊ
length
kīng
kòo
kuˇ
kouN
kiak
khióng
khah8
jîm
jiáng
iun
inc
hīⁿ
hotel
hooˆ
honn
hl
henˋ
guts
guh
gold
gland
giu
gih8
gieˋ
giat
gave
following
fly
flat
fashion
epa
ending
digital
didn
cy
ct
clear
ck
chōa
chung
chhún
chhàng
chhou3
chhang2
cenˇ
central
career
camera
bué
brought
border
bon
biˊ
bidˊ
bbu
bboo
auˋ
ana
alcohol
address
across
access
able
Zhu
Zenith
ZF
Z9
Ying
Yeats
XWB
XV
Wol
Whit
Wet
WeWork
Was
WD
Vivier
VIVE
Ultimate
Ubike
UAV
Tur
Tsuí
Toē
Tiu
Tih
Theodore
Ter
Tennessee
Telegraph
Technical
Tay
Tam2
Taiyal
TOD
TIONG
TEL
TAS
TA2
T8
Summit
Stray
Stefano
Spectrum
Silent
Shot
Shaun
Self
Schweitzer
Schwarz
Samaw
SVG
SPY
SIA
Ryu
Rus
Richmond
Rhythm
Rescue
Ren
Reading
RW
RECORDS
Q7
PŌ
Pretty
Piano
Phoebe
PhaN3
Pei
PVD
PSR
PAK
P9
Ox
Ottawa
Once
ODA
Notes
Nikki
Niau2
Narendra
NV
NNkng3
NEX
NAVER
NAS
Mî
Mun
Mosque
Models
Midnight
Mickey
Michele
McGee
Maybe
Macau
MOSFET
MER
MEN
Lue
Lois
Lam2
LZ
LH
Kru
Kos
Kono
Koch
Killer
Khin
Kansas
Jiok
Jar
JTWC
JIN
JD
Insurance
Inn
Initiative
In2
IIA
IETF
ICO
Hubert
Hsu
Hong3
Hollande
Hn
Hiông
Hel
Heath
Hakka
HaN
HIP
HH
HAR
H2O
Gē
Gym
Groupon
Ground
Genie
Gardens
GEM
Frontier
Flo
Flak
FPS
FH
Epi
Elvis
Eden
Economist
EAOC
Dreams
Dora
Dock
Democratic
Deb
DOM
Cordelia
Command
Cola
Clint
Clean
Citi
Cisco
Chòng
Chiân
Chhah
Chagny
Carrera
Cairo
Cain
CME
CLI
CIS
CDS
CCL
C7
C6
BŌ
Bor
Boat
Bloom
Blanc
Biden
Bernstein
Bernhard
Bauer
Basel
BGM
Aus
Attack
Ariel
Ani
Angelina
Ama
Alvarez
Adi
Abdel
AVC
ASEAN
AIoT
ADI
9mm
6666
6488
6432
6230
6116
5478
3750
3691
2S
2999
2809
2708
2332
2032
1503
14K
1495
1462
1461
1441
1426
1422
1417
1379
1309
1256
1245
1202
1158
1146
1106
1058
1041
100g
0331
0324
0100
##Ta
##PH
##Ka
##HR
##FT
##ENT
##Do
##DC
##CT
##Be
##Al
##AB
##501
##250
##201
##Ｘ
##８
##４
##사
##ます
##ра
##б
##τ
##ł
##ð
##wu
##world
##vre
##uz
##ury
##uf
##u5
##tur
##tai
##sey
##room
##rf
##rak
##phone
##over
##mph
##mit
##lock
##jn
##ists
##ional
##ij
##ied
##hus
##ged
##fu
##fish
##eti
##ega
##eer
##eat
##dre
##ded
##ces
##burn
##bun
##bia
##az
Ｚ
ＩＡＥＡ
ＣＥＰＡ
龑
鮕
鬻
鬟
飈
韙
鎭
釕
逄
迮
豨
諲
訇
観
覘
蜑
蜅
蔵
苹
缐
箐
癀
疋
畹
畬
玓
瀳
氤
樅
崚
媯
妁
塋
圪
儻
儺
儔
侂
クリスマス
ガ
やなせたかし
ほ
かんばん
〇〇
на
zimˋ
zied
xiang
written
vision
veˊ
vanˋ
user
une
tûn
tungˊ
tsî
tsè
tsãh
tsiànn
tsak
tra
tiongˇ
tie
thûn
thãh
sweet
suiˇ
sud
spread
smart
shauˋ
shadˋ
senˇ
rhauˋ
relationship
rap
quattro
pìn
pub
poàn
planning
piak8
phia
penn5
parents
pang55
noâ
nia3
ngiem
ngi3
mod
miya
mit
mis
method
matter
mass
luì
lower
looks
lit
kôan
kue
koˊ
koann7
kind
khuànn
khuah
kann2
iso
internet
increase
iauˇ
hònn
hà
hiannh
hearing
hamˊ
hahN
glass
giugˋ
gio5
gar
friends
formosa
fiˆ
fangˋ
fai
drop
done
digraphia
deˋ
decision
dec
dan
cultural
college
ciongˇ
ciim
chǹg
chinˋ
chhêng
chhiak
chaˋ
chant
ccTLD
building
bue
bbooˆ
am5
alpha
aggregate
ag
act
account
aa
ZA
Yellen
Yar
YONEX
Xa
Wiggins
Webb
Wah
WWDC
WIFI
WEB
Von
Vic
Vevers
Ventures
VVVF
VMware
VAMPS
Upton
USP
UO
UNICEF
UM
Tumi
Tsiah
Tru
Troy
Tribune
Torre
Till
Thok8
Teen
Tata
TCL
TARDIS
SŪ
Symbian
Subway
Spain
Songs
Solaris
Soe2
Showtime
Shift
Seoul
Semiconductor
Sega
Scout
Salon
Safe
START
SSE
SPACE
SOHC
SCA
Ruiz
Rothschild
Romantic
Rip
Release
Rand
Raj
Rag
RUNNING
RSF
RIMOWA
Quad
Qa
Py
Pushkin
Push
Pun5
Prof
Prism
Pon
Poe7
Pleasure
Phô
Peters
Panda
Pam
Pagsanjan
PETA
PEN
PAR
Oregon
O1
Novell
Nothing
Naval
NTV
NOW
NHS
NCT
NAD
NAC
Mori
Moonlight
Montgomery
Monitor
Mom
Ministry
Mig
Matthews
Masters
Manga
Mahmoud
Macro
Macintosh
MSI
MATZKA
Lò
Lîn
Lowe
Long7
Lindsey
Lester
Label
Kumar
Kingston
Kham
Kecamatan
Katie
KU
KDDI
Jalan
JIS
Indonesia
Ih
ISUZU
IRS
Hydro
Hy
Hotsys
Hole
Hoh
Helio
Ha3
HV
HN
HG
Gro
Gri
Gr
Gale
GK
GJ
GBA
Fran
Fighter
Fei
Factor
Fab
Expedia
Ethan
Egg
Early
Duffy
Dre
Dominique
Dialogue
Denmark
Dem
December
Dani
DTM
DDoS
DDT
Cry
Cox
Coser
Connor
Communication
Clyde
Click
Clement
Chut
Cheng2
Chelsea
Champion
Celtic
Caldwell
CIRCUS
CHINA
Bīn
Bî
Bín
Burning
Braun
Brady
Bot
Bong5
Boko
Bleacher
Biology
Bet
Beacon
Baobab
Bahn
B2B
Au3
Armstrong
Angels
Analytics
Always
Alejandro
Alec
Aka
Adventure
ATV
ATR72
AFL
ADT
8GB
8G
8069
6286
5GW
3d
3Q
3GPP
3702
2C
2501
2385
2337
2312
2101
2033
2029
1b
1474
1427
1423
1363
1268
1169
10G
10900
10646
##X2
##VO
##TM
##Se
##OC
##Mbps
##Lo
##LI
##JI
##HD
##E1
##BS
##AK
##지
##원
##리
##다
##ヨ
##ボ
##ヒ
##パー
##ゲ
##ギ
##じょう
##こと
##і
##го
##ɔ
##ž
##ño
##és
##zz
##works
##wick
##uit
##tum
##sto
##sti
##sko
##ska
##shu
##rte
##rium
##rian
##rell
##rel
##pp
##play
##pie
##pet
##ost
##onia
##oka
##ob
##nts
##now
##nin
##mund
##mei
##mba
##mate
##mai
##lion
##ket
##ily
##ili
##iko
##ido
##idi
##i5
##hat
##hara
##hai
##gt
##gro
##graphy
##gio
##gal
##ete
##city
##ches
##bre
##bot
##bin
##beh
##aus
##atus
##a2
𧻴
𠊠
ＰＣ
ＢＭＩ
麗
論
落
아
黻
黹
鮈
鬲
駅
雑
釤
豇
誾
訾
螽
菽
荋
舾
繅
縟
継
秝
祓
礹
矌
痼
痚
玀
烺
瀣
橛
旮
数
捂
弢
墬
吿
号
凖
値
䁅
ク
せ
げ
Р
П
ôan
within
whole
vienˋ
vagˋ
unit
uai
tènn
tuann
tt
tsiàⁿ
tshíng
tor
toann7
themselves
tell
taitung
student
stranger
skin
sir
siangˊ
siam3
se7
sagˋ
safety
safe
rhenˋ
related
recent
reaction
ran
pâ
punˊ
poà
popular
poann
plot
piano
piag
phòa
phué
performance
passing
ouN7
organization
o2
nge
neuˊ
meeting
measure
liãp
liat
kö
kuinn
kongˇ
kian2
khînn
khê
khiū
keng5
ja3
iuⁿ
iuN
interest
iab
hõk
hôa
horse
hiun
heˋ
heat
guedˋ
guaˋ
gone
für
frequency
forward
follow
flight
figure
fb
falling
dien
delay
dedˊ
cunˋ
crisis
cold
clo
ciuˋ
cit
ciong
chhoé
char
ceˋ
buˋ
boiˊ
bird
bes
bbuˊ
bboi
approach
ani
alt
aN7
aN2
Za
XVI
XDD
XBOX
XA
Wolfgang
Wireless
Wagner
WL
WEST
WADA
Voyage
Viet
Valentine
VN
VGA
Uh
UVA
URI
Tńg
Turk
Toy
Tong3
Toan
Thierry
Tat
TYPE
TOR
TOM
TLPGA
THREE
THAAD
TAC
T12
Sz
Sur
Sunrise
Sultan
Solid
Soc
Simone
Ship
Seattle
Scha
Saturn
Salman
SPI
SKT
SDR
Rosetta
Rome
Romance
Roe
Ridge
Reno
Ready
RL
QF
Productions
Prison
Pom
Pok
Poe5
Phû
Phòng
Phou
Phoh
Philadelphia
Phiau
Pena
Papa
PLC
PAL
Oz
Ora
Od
O2O
Noya
NW
NEO
Move
Mosaic
Moncler
Monaco
Moe
Milk
Mh
Mee
Mayday
Masa
Mare
Mak
MPV
MJ
MID
MGM
MAS
M24
Lotus
LinkedIn
Lindsay
Lac
LSD
LEO
Koan3
Kng2
Kings
Khiu
Kel
Keanna
Kaiser
KPI
KIONG
KHO
Jupiter
Jenkins
JN
Italian
Ingram
Ibaka
IPC
IGBT
ICM
Hû
Hî
Hán
Horizon
Hmh
Hicks
Heroes
Heather
Harumi
Harbour
Hannah
Hae
H5N8
Gún
Guinness
Giles
Ge7
Gan5
GTX
Fung
Fool
Fever
Fear
FD
Eyes
Ex
Erin
Epson
Environment
Elliott
Elaine
Eclipse
EYE
EMP
Dow
Dolce
Dispatch
Digest
Darwin
Dancing
Dana
Dali
Dakota
DSM
DIN
Cuban
Couture
Constantin
Conrad
Compact
Com
Citizen
Christie
Choice
Chhio3
Chhai5
Chambers
Cath
Carnegie
Canton
Campaign
CVS
CUBE
CSP
CSM
CD4
CAF
Būn
Burch
Buffett
Broadcom
Brick
Both
Bolton
Bobbi
Bla
BitTorrent
Barclays
Banks
Ba5
BEA
Assad
Another
Anniversary
Alta
Aloha
Alo
Alaska
Afternoon
Adult
Abi
ASX
ARMANI
APC
AMP
A22
A0
7B
5g
5M
40mm
3rd
3698
3311
3061
2980
2915
2560
2430
2301
2222
2031
194002
1352
1331
1305
12K
1297
1292
1249
1233
1184
1182
0970
##TU
##SD
##PE
##PD
##NC
##Mi
##HS
##520
##도
##ティ
##ケ
##もの
##べ
##ふ
##って
##ざ
##いる
##ان
##та
##ли
##г
##Д
##ή
##än
##ã
##ár
##yat
##yama
##xy
##xin
##x2
##wei
##vet
##ude
##sts
##rov
##rol
##ration
##press
##pad
##ound
##ope
##nse
##nc
##mp
##lp
##lk
##lim
##kha
##iv
##ith
##ington
##his
##hia
##gren
##etti
##esh
##elin
##die
##dam
##cke
##ción
##chin
##cer
##cation
##ais
##aba
𤺪
𠘆
ＸＸ
ＯＢＵ
ＩＢＭ
２０
令
說
懶
句
鷴
鷯
鷦
鵐
鴣
鮄
頼
鑷
銚
鉿
邙
遒
迓
襦
襞
螻
蝹
蝍
蘺
藨
薸
蒾
蒽
荸
縒
糅
筣
穂
礮
磴
痱
瑈
琤
珯
漀
沄
搆
抜
巻
嬡
嫈
塽
咤
呴
冴
冨
仞
モ
ヒ
ナ
ら
ね
された
③
ال
У
ü
³
zheˆ
zaˊ
zamˋ
zai
winter
wall
walk
voting
ty
tsàu
tsok
tshiō
tshiânn
tp
tiänn
tip
tiaN
thãk
third
tet
telling
tabˋ
sīnn
systems
sung
success
straight
statement
speak
soˊ
soul
songs
signal
siann5
senn3
river
results
reports
railway
quality
pōo
pãk
pugˋ
poiˋ
playing
planet
pl
oàⁿ
outside
opera
once
officials
nunˊ
niuˇ
nid
ngiungˋ
newspaper
neo
neenˋ
muī
mouh8
milk
mia
mi2
members
marriage
líng
lrsf
lie
leh8
koē
kiedˊ
jín
isn
im2
ib
häm
hám
hyper
huān
huê
hib
hans
haiˊ
haN3
guā
gudˋ
guaˇ
gok8
giãt
gh
games
flumpool
financial
female
etc
ee
e4
drug
dot
dos
diuˇ
detail
demˊ
computer
community
comes
chūi
chief
chhui2
chhop
chhng3
card
cap
buy
bridge
born
bomb
boah8
bis
birds
bass
bad5
available
attempt
allow
ZTE
YISHION
Wolfram
Wings
Willy
Willis
Williamson
Wen
Walt
Walmart
WA
Vor
Vogel
Vim
VX
VOA
VIA
Tucker
Truth
Transportation
Traffic
Tobias
Tiāu
Tin5
Ti5
Thursday
Thou3
Thom
Thiu
Their
Tele
Tae
TY
TWO
TMS
TEE
T9
Sàn
SÈNG
Syrian
Strike
Sterling
Sten
Solutions
Sisters
Siren
Simons
Sib
Season
Schu
Salvador
Sally
Rupert
Rubin
Rouhani
Romain
Rockstar
Roche
Rizzo
Ria
Response
Ras
Rabbit
RU
RK
RI
RER
RAY
RATP
RADIO
R0
Pur
Puma
Practice
Pose
PoaN
Ple
Plane
Pla
Pittsburgh
Philo
Persona
Pandora
Pai2
PDP
Om
Officer
Odom
Ode
Oculus
OE
Norton
Niá
Nippon
Need
Nar
NVMe
NPA
NOWnews
Mur
Morse
Morales
Monroe
Moh
Minh
Milan
Mikhail
McCutchen
Marvel
Marte
Marcel
Mao
Mans
Malaysia
Magnus
MHC
MET
MAG
M1911
Luigi
Lud
Liverpool
Lit
Liau5
Lian7
Leap
Lead
Lap
Lancet
Lambert
L4
Kospi
Korver
Kis
Kim2
Kiehl
Khoai3
Khng
Ker
Kant
KF
KAI
Jaeger
Iu3
Iran
Institution
Insights
Ink
Illinois
ICD
IAU
Hung
Hulu
Hiong3
Hiong2
Herman
Haskell
Hamburg
Hair
HONDA
HEART
HACCP
Grid
Graphics
Granderson
Gramsci
Gram
Gra
Giant
Gavin
GIF
G9
Fuji
Fischer
Fiona
Find
Films
Fiesta
FamiPort
FIRST
Even
Eurogamer
Enviro500
Emacs
Eleanor
Economy
ETS
ETA
ESP
EO
Dro
Dri
Dra
Doyle
Dover
Dmitry
Diva
Dio
Daisy
Daddy
D9
Cs
Crush
Crossover
Cro
Create
Cra
Content
Computing
Coin
Chromebook
Chocolate
Chamberlain
Chalmers
Cedric
Cant
CHERNOBY
CHANNEL
CFR
C130
Bugs
Bron
Brendan
Boras
Boh
Blo
Blair
Beth
Bernie
Basketball
Barton
BVLGARI
BURBERRY
BIKE
Aya
Ao
Anonymous
Andrews
Amo
Amare
Alert
Alana
Aircraft
Admiral
ATC
AT1
ASUS
ASIA
AQ
ALS
AEG
AAAA
8078
5ppm
5m
5880
5387
3680
3622
3452
3044
2670
2550
2455
2449
2208
2106
20mm
1434
1432
1342
1324
12A
1299
1271
1259
1172
10700008
076
##World
##UT
##Talk
##TR
##OD
##LT
##GI
##For
##EE
##Di
##AY
##ANG
##AI
##360
##Ｊ
##ング
##とう
##った
##せ
##то
##λ
##η
##ʰ
##ş
##ça
##ão
##ß
##wski
##wee
##vy
##vision
##virus
##vas
##ute
##ust
##tho
##teri
##tech
##sp
##som
##rna
##rma
##rius
##pot
##por
##phon
##oun
##ngton
##mie
##max
##lor
##lem
##lab
##kon
##koh
##kat
##kal
##kai
##jun
##ink
##ico
##ichi
##i2
##hra
##hos
##hon
##get
##fort
##dal
##but
##bis
##bai
##aux
##arm
##anu
##ake
##aj
##aga
##af
##act
𧿳
｡
ＰＰ
ＬＰＧＡ
ＩＴＣ
１２
﹀
黷
鷚
鯒
鮸
鬈
髪
隰
鑥
鐽
醱
酞
遄
踨
賅
萡
莨
荍
耜
羸
縄
籗
稞
祏
眭
眥
瓌
璵
璫
瑨
獁
狎
燠
氵
氅
欱
梱
柞
暸
掟
挳
拹
戢
憍
惝
悝
奀
埜
圯
圏
参
匼
劏
剧
傉
㾂
㽎
㴶
㧣
م
ˈ
ō
Đ
óo
Àn
yellow
wrote
wi
vin
uãt
uâ
university
tãp
tsán
tsong2
tsn
tshì
tshè
towards
tiongˊ
tiaⁿ
tiann
thousands
tehh8
teacher
talking
sē
sòaⁿ
status
staff
specific
sound
soan3
snow
simple
shite
ser
sedˊ
secret
sch
sa2
ring
rhiongˇ
rheˇ
reason
pūn
press
posted
ponˊ
players
plane
pig
pienˋ
phēnn
phêⁿ
phàng
phong5
phiáⁿ
phiat8
phase
panˋ
oˋ
nine
ngˇ
ngiog
ngieu
ngiagˋ
ngangˊ
neuˋ
nat
naih
nag
mái
mangˊ
manager
lâin
là
loat
lai3
labor
kôo
kë
kuanˊ
kián
khuà
kham7
keu
kaiN3
jun7
jiō
jiog
iūnn
interview
ice
iG
hour
hiunˊ
higher
heavy
haih
haiN7
gím
guanˇ
gieb
general
fx
fur
floor
flash
festival
feet
fact
equation
encore
duiˇ
domain
diongˋ
deGrom
cloud
client
clean
choe
chiam2
channel
chain
cd
camp
bôo
birthday
biau5
avoid
authorities
attention
amˋ
Zu
Z5
Z2
Yuen
Youbike
YH
Xu
XY
XM
X7
Wozniacki
Wear
Wat
Waikiki
VoLTE
Vitoria
Virgil
Ville
Vespa
Ves
Verdun
Vas
Vari
Valencia
VIE
Unity
UIC
UB
Trouble
Tro
Tristan
TripAdvisor
Trio
Tonight
Ton
Tiam2
Thou
Tall
Tal
TTC
TODAY
TIM
TFBOYS
TEA
TAI
Sán
Surprise
Sul
Sta
Soé
Som
Soh
Siⁿ
Siong3
Sil
Shield
Shepherd
Shark
Shakespeare
Shai
Shadow
Sexual
Seri
Sei
Seh
Sco
Scho
Sar
Salah
SX
SVD
STUART
STEP
SPD
SNP
SISTAR
Roth
Rihanna
Richards
Rest
Res
Rep
Regent
Rakuten
ROE
RES
REER
Property
Prima
Porsche
Platform
Pine
Pilot
Pick
Petit
PaK
PRP
PRC
PISA
OpenOffice
Omer
ORICON
OIE
Nunez
Nielsen
Ness
Natal
Naomi
NDF
Musical
Moto
Mos
Mohamad
Mirza
Mic
Megan
Mayor
Maui
Mattis
Mattingly
Mati
Mat
Marvin
Marry
Maple
Mali
Macron
Ma5
MLS
MAZDA
MAR
MAIL
M27
Lyon
Lyiking
Luc
Loud
Lone
Loan7
Loan
Lis
Lin5
Lens
Len
Leeds
Lebron
Leader
Lars
Languages
LPG
LONG
Kraft
Kitiyakara
Kio
Kerber
Kendrick
Kare
Kanon
KGB
KADOKAWA
Jupyter
Jolie
Johns
Jaya
JTB
JCB
JAXA
JAS
Iris
ITA
IRC
IMP
ICU
Hosmer
Horse
Homer
Hilton
Hedi
Heavy
He7
He5
Hau
Halulu
HTTPS
HONG
Gui
Grove
Greta
Goran
Glee
Gla
Givenchy
Gamer
GameRankings
Friedman
Frederic
Freddie
Forward
Formula
Flyer
Fitz
Ferrari
Felipe
Fans
FILA
FAI
Ere
Elm
Elliot
Elisabeth
Ei
Egypt
Eaton
EUV
ELF
EK
Draw
Doncic
DoReMi
Din
Didi
Did
Davidson
DLP
DIS
D6
D11
Cow
Courtney
Cost
Cornell
Console
Combat
Cle
Clara
Chîn
Choán
Chow
Chhēng
Chheⁿ
Cecilia
Cars
Cap
CRT
CPC
COMPUTEX
COLD
COACH
CLA
CHEN
CHE
CCI
CALVIN
Bro
Bravo
Bow
Biau5
Bi7
Beer
Beast
Bashar
Barrett
Bangkok
Baba
BI
BG
BDSM
B1A4
Ars
Archer
Apink
Answer
Ano
Ane
Amnesty
Against
AZ
ARIA
AHQ
AEC
ADV
A23
9F
5cm
500rpm
4X
4958
3L
3686
3561
3176
3035
2884
2599
2460
2376
2360
2205
2038
1M
1GHz
1486
1359
1343
1338
1247
1246
1228
1197
1188
1177
10A
1092
1020000
100m
0mm
086
##WI
##UP
##UD
##Sa
##SU
##Pro
##PR
##LD
##LC
##JA
##FB
##Con
##AG
##0000
##ポ
##ホ
##パーキングエリア
##クス
##オン
##ょ
##ゃ
##む
##だい
##ш
##ф
##ла
##А
##zin
##yar
##xt
##wen
##uru
##tter
##tine
##tha
##tat
##sic
##sed
##ré
##rra
##rr
##rid
##rich
##ques
##pri
##pha
##ote
##oss
##ono
##omo
##ois
##odon
##num
##nha
##nde
##mine
##mans
##mAh
##lou
##lm
##list
##kul
##kong
##kas
##iz
##itis
##ison
##int
##inn
##idea
##hot
##gor
##gai
##g2
##fy
##fre
##formula
##fied
##ense
##edo
##dio
##chia
##char
##cen
##cam
##bang
##arin
##ami
##aka
##abad
ＵＳ
ＲＣＡ
ＧＭＰ
ＣＤ
ＡＲ
魯
饈
鏜
鋕
鈧
鈁
鄕
逋
転
趼
讜
諠
衖
藎
舎
胍
耄
翸
笄
穠
禳
砹
犰
燹
澠
滮
晌
攖
擫
擧
擀
撘
拝
慒
惴
巰
响
哋
呧
劻
児
傌
侹
㽘
㧎
ホ
プロ
ビ
よ
まで
ばん
ど
とう
Ⅳ
по
Т
Š
ōaⁿ
zonˊ
zhen
zeˋ
ur
udn
tánn
tuānn
tsùn
tsãt
tsuáⁿ
tshân
tshan
track
tpc
tiäⁿ
tinn
thōng
thòaⁿ
thuî
thián
thann
teh8
tar
sông
sáⁿ
stick
sort
song7
sol
sitting
sinn
sim1
siauˇ
shuˊ
showed
shit
saiˋ
roll
rise
rich
range
pua
products
primary
ppt
ppb
positive
piece
phāinn
phùn
phé
partner
panˇ
paiˋ
owner
original
oann7
node
ngiˊ
neˆ
neemˋ
needed
muâ
movie
motion
miong
mental
mega
max
marry
mangˋ
management
male
magnetic
luãh
loê
lom3
loah
linguistics
levels
legal
learn
kìn
kom
khōng
khuann
kaˇ
kangˇ
jump
jsp
journal
jiang
itself
incident
impact
iap8
hìng
hy
huat
huah4
holo
hogˋ
hiõh
hide
hiamˇ
height
heard
har
gām
guide
ground
goē
giô
giunˋ
giebˋ
giam
gen
gan3
football
followed
feˊ
faiˋ
division
cungˇ
cry
cor
complete
companies
codˋ
chinˊ
chinn
chicken
chhiám
chhiàm
cent
cause
bîng
blow
biū
bb
banˊ
balance
arc
animal
activity
abˊ
aN5
Zo
Zimmerman
Z3
Worth
Won
Winchester
Wildlife
Wieters
Wide
Whiteside
While
Weaver
WeatherRisk
Watts
WT
WINNER
WH
WAN
Vo
Vitamin
Violet
Value
VK
VAN
U8
U6
Tsi
Trudeau
Trip
Trea
Toulouse
Tone
ToaN5
Tiny
Timberland
Til
Thoa
Thak
Terrence
Terminus
Tau2
Tao
Talmud
TSI
TRUE
TRA
TEN
TAM
T91
Switzerland
Sus
Statcast
Spike
Sp
Snake
Sma
Slow
Slim
Skyline
SiO
Shen
Sensation
Sci
Scarlett
Scale
Saigo
STORE
STONE
STI
SQ
SOI
SIL
SHIN
SAC
S60
S20
Ri
Retrieved
Retina
Resources
Reporter
René
Reach
Randle
Radar
RN
RIP
R9
R6
Quick
Quartz
Péng
Puig
Pratt
Poli
Pod
Piáu
Pioneer
Pic
PiaN2
PiN
Pho7
Peterson
Peer
Peach
Pb
Parti
Parade
Pang5
Pak8
PW
PPI
PFA
PDGF
P10
Osaka
Oleg
Nobu
Noble
Niantic
Nga
Newcastle
Neill
Natalie
Nai7
NHTSA
NASDAQ
MySpace
Murder
Mud
Moa
Mg
Melo
Medvedev
MeV
McCollum
McAfee
Mas
Maru
Mani
Mal
Mah
MN
MAP
M10
LÓ
Luca
Lua
Lor
Longines
Lon
Literary
Lima
Lian
Lawson
Late
Laser
Lala
LPL
LOOK
Kä
KÒ
Kupua
Kud
Kua
Ko3
Kiu2
Kiong7
Khú
Kheng5
Khalid
Khahkhuh
Keys
Kepler
Kek8
Kee
Karsa
Kaohsiung
Kala
KEY
Joker
Job
Jiâu
Jewish
Jaylen
Jair
JW
Iowa
Indo
Impress
Imp
Ig
Iau3
IOT
IOI
INS
IK
IGZO
ICF
Hò
Hâm
Hoo
Holly
Hiòng
Higher
Hawk
Hag
HL
HER2
HER
HAL
Gregorius
Greek
Grass
Goo
Gli
Gia
GROUP
GALAXY
Ful
Folk
Flickr
Fleet
Feed
Fang
FFE4E1
Extreme
Experience
Evelyn
Et
Ending
Elias
Ecumenical
EMT
EDI
Duff
Dragic
Dillon
Diane
Demand
Defence
Dec
Dangerous
DRGs
DIR
DDG
D68
Cueto
Crosby
Crest
Cre
Corporate
Corner
Copy
Commercial
Clermont
Clan
CinemaScore
Ciel
Ci
Chā
ChiuN2
Chih
Chavez
Chant
Chance
Chair
Certificate
Carla
Cable
Caba
CTA
CSA
CPA
CHIN
CFM56
CASH
Bâ
Burns
Bumgarner
Buddy
Brit
Brien
Breguet
Boxing
Bowl
Boot
Bona
Blossom
Blade
BlackBerry
Biz
Beers
Beatles
Bart
Bari
Barber
Balenciaga
Bale
Baez
Bacon
Babe
BTC
BROWN
BOOK
BK
BAA
B0
Atomic
Atlus
Atari
Ata
Ask
Arms
Aramco
Anh
Amsterdam
Afghanistan
Adolf
Adel
ARPU
ANT
AFR
A310
8088
7728
6G
6A
6176
6153
60000
5001
4th
4L
3T
3GS
3GB
3687
35K
3001
2L
2E
2702
2502
2406
24000
2396
2105
200m
1TB
1C
1344
1098
##ZE
##URE
##UL
##SON
##Ro
##Re
##Link
##La
##KU
##GU
##FU
##ERS
##DY
##DER
##CN
##Bu
##AV
##AH
##AF
##2019
##011
##010
##고
##ロー
##ピ
##しょう
##ст
##ер
##ба
##δ
##ən
##ɑ
##ym
##uka
##u3
##tung
##thy
##tation
##tam
##stu
##ssion
##ship
##sam
##rman
##rit
##rim
##qui
##qu
##pre
##polis
##pit
##pedia
##pb
##pat
##onal
##ogo
##oga
##oba
##nza
##lb
##lav
##lang
##lak
##kawa
##itz
##hing
##hed
##hall
##gue
##gos
##g5
##fun
##flo
##ement
##eim
##eV
##dom
##cks
##card
##cap
##bri
##bird
##bh
##att
##ath
##ante
##alis
##alan
##aku
##ability
𧪄
𡢃
ＩＣＣ
ＦＤＩ
ＥＦＳＦ
ＤＶＤ
ＢＭＷ
鱚
鯁
騭
閙
錛
鋂
醪
蹙
踫
貔
読
裎
袓
衆
蟜
蜉
蕘
莩
縯
碕
瘂
狳
犠
潾
涑
檉
榧
擉
撅
搡
揻
揈
徿
当
峩
媱
娸
壎
墣
噲
咗
呶
叁
ー
タイル
ゴ
わ
しい
かい
ziong
zhong
zaˇ
xiaˇ
workers
wen
wanted
walking
vui
vote
voiceless
vai
v1n9
v11n3
tái
tug
tube
tsü
tsäm
tsuãh
tshûn
tshù
trouble
troops
trip
tre
trans
total
tomato
tiak8
thūn
thiò
thak
television
taste
taiˋkiˋpangˋ
séⁿ
syn
sure
stand
sq
spin
siˊ
sian5
semˋ
seb
sale
rhogˋ
recognition
quiet
qui
pā
põk
pòe
pän
pãt
pure
puann
proto
property
print
prime
potential
poiˊ
pipe
pie
phiak8
phauh
personal
penˇ
pau5
offer
oa3
nug
nor
ngianˋ
ngh
nearly
nauˋ
nanˇ
mńg
mv
msn
motor
meta
meet
mb
mal
maker
machine
lä
lungˊ
lonˋ
liungˇ
learning
lack
kônn
kâⁿ
kué
kuänn
koˋ
kiugˋ
killed
kiak8
khùi
khooh
kho7
khiu
keN2
kauh8
judge
jet
jek
iánn
iug
inˊ
iD
hīng
hog
hoann
hing
hien
hem
hant
hamburger
hall
h8
guen
godˋ
goan
giõh
gieuˇ
gibˋ
gian
giadˋ
gets
geo
gap
gam7
further
fr
forms
fooˆ
fen
epi
ep
edition
earlier
dual
disco
dialect
demand
debˋ
db
das
coˇ
continue
contact
construction
claims
ciˆ
chî
chut8
chocolate
chhak
carbon
bueˆ
boo
bio
bienˊ
beng
bbooˋ
bbeeˋ
ash
ari
amount
aki
agnes
Zn
Zip
Z4
Yard
YY
YO
Y2
Xin
Xiao
Xbox360
XXI
X6
Writing
Would
Wonderland
Wizard
Willie
Welch
Webster
Walking
WOO
WO
WMA
WG
WASP
Volume
Vienna
Vestas
Valentin
V12
Uttar
UW
Tèng
Tt
Trap
Tradition
Tiām
Tiu7
TikTok
Thàn
Thornton
Thin
Tetra
Teng3
Tear
Te2
TPA
TEK
Sǹg
Sword
Swe
Sut
Students
Stu
Stream
Strait
Stor
Stephenson
Stack
Spider
Spe
Spark
Sodium
Soar
Siúⁿ
Sióng
Siáng
Sip
Silence
Sig
Sid
Share
Sever
Ses
Seng7
Seine
Sche
Scar
Saul
Saudi
Sands
Sana
Salmon
Sal
Sabo
STAY
STARSHIP
SPORTS1
SPG
SOM
SOD
SOC
SHOCK
SF9
S8
Ry
Rolling
Robo
Robbie
Risk
Rey
Regional
Reform
RBI
RAIN
R7
R5
Quest
Portal
Poor
Pina
Peugeot
Patauw
Past
Partnership
Palo
Pac
PPS
PPAP
PIKO
PBS
Olympia
OPC
O5
Nia
Nero
Nepal
Ned
Nebraska
Nav
Nat
NS1
NANA
Musa
Moo
Monkeys
Monde
Mimi
Millsap
Miko
Mii
Mau
Mata
Massimo
María
Martina
Marks
Manchester
MIPS
MHI
MBK
M41
M12
Lux
Loop
Lonzo
Lons
Lonely
Linsanity
Leave
Kristina
Klu
Kle
Kirch
Kir
Kio5
Kil
Kick
Khûn
Khuh
Kheng3
Kar
Kagoshima
KYC
Johnston
Johansson
Joakim
JoJo
Jin7
Jakarta
Ja3
Idea
IPP
IAAF
IAA
Hr
Hour
HoaiN5
Hi3
Herrera
Hazard
Hay
Haute
Harmony
Hari
Happiness
Hansen
Haley
HEAT
HAT
Gravity
Governor
Gos
Gon
Gol
Goethe
Goe
Gan
GRE
GNP
GINO
GHQ
GCC
Follow
Folli
Farrell
FV
FPGA
FL7
FAN
Esports
Episode
Ep
En5
Ein
Effect
EVE
EPR
EAP
Drop
Dota
Donaldson
Domingo
Diet
Dev
Desmond
Dei
Ded
Darling
Danilo
Dad
DMZ
DMA
DFS
DDR
DARPA
D10
Czech
Cue
Crisis
Crew
Comme
Coming
Comics
Colon
Clinical
Civic
Chím
Chorus
Chopard
Chhái
Chhu2
Chhiang5
Cherbourg
Cher
Cheney
Chef
Chara
Chap
Championships
Chah
Cf
Cespedes
Cemetery
Carlisle
Carey
Capitol
Camry
Caen
COS
COL
CHIC
CCS
CCP
Brutus
Broadcasting
Bregman
Branch
Boyd
Bodleian
Blog
Ble
Benson
Beltran
Beam
BRA
BER
BANK
Ay
Axel
Away
Aurora
Audemars
Auch
Atlanta
Ath
Asus
Archie
Airline
Abrams
Abbott
ATX
ARTSVISION
ANNA
ADO
ADL
A15
9B
9450
5c
3888
3081
2820
27000
2597
2375
2368
2315
2287
2214
21000
2075
2061
1s
1k
1Gb
1341
1318
1317
1193
1164
1136
10B
10700
##UC
##SHI
##RNA
##OK
##Ni
##MU
##MG
##Ge
##GS
##GL
##EI
##E2
##Bo
##701
##620
##3D
##2a
##213
##2020
##112
##Ｙ
##하
##ユ
##ュ
##ェ
##ょう
##てい
##ちょう
##した
##かい
##ר
##י
##ре
##ой
##но
##ни
##на
##ж
##ав
##ω
##ί
##ùn
##ör
##å
##ãt
##ám
##zing
##yah
##wl
##vir
##uw
##uto
##usi
##type
##tek
##tage
##tag
##t8
##sol
##sn
##sian
##shan
##rti
##roy
##rou
##rina
##rh
##rch
##pun
##pol
##ovic
##omy
##omi
##och
##mos
##mond
##mn
##m5
##lot
##lich
##lei
##kit
##kho
##itt
##ische
##imi
##iki
##if
##iah
##hri
##hm
##haw
##hard
##gene
##fon
##face
##ew
##ets
##eon
##ello
##eda
##ead
##dog
##dea
##cos
##chai
##care
##bie
##bad
##aud
##asia
##any
##anti
##ank
##alk
𩛩
𤴆
ＳＢＬ
ＲＯＴ
ＭＷ
黼
黥
骶
騶
阨
閶
鑀
鍤
郫
邴
辺
軚
蒺
营
莛
苕
脢
耨
翃
礴
磾
矓
瓴
璥
瑒
獃
猻
漈
滏
湜
洌
欹
摭
搟
揳
戅
悱
怩
忞
徴
廆
媖
妡
埵
噝
剺
倨
䒟
ン
ロ
ルツター
メ
ム
アル
しょう
この
あり
ก
Ā
²
zug
xiauˇ
wood
wing
window
whether
vogˋ
vehicle
uè
uãh
töng
tînn
tìⁿ
tuí
tsínn
tsín
tsáinn
tshing
tshai
tonight
threat
thiann3
taka
tagˋ
tad
sy
surely
sueh
sue
sor
shown
shedˋ
setting
sep
sebˋ
seat
sanˇ
rhia
review
remain
reference
race
quarter
qu
pōe
push
proper
possible
population
ple
pinˇ
phōng
phīnn
phā
phà
phuà
phik
phiak
path
papa
paid
null
nuaˆ
nov
nh
ngiuˋ
ngie
ngai3
mng2
mission
measures
material
longer
logic
loan
lives
liongˊ
linguistic
li31
leaders
lay
kui5
kuanˆ
kongˊ
kiˊ
kiâ
kingˊ
kieˋ
kiamˋ
khóa
khut8
kenn
jōa
juê
jiongˋ
iong3
intelligence
initial
included
ie5
idol
iann5
iamˇ
hãk
hàiⁿ
hyphen
hom2
holiday
hmh
heenˋ
guaˊ
ginˆ
gene
gate
freedom
frame
foˇ
flu
experience
exchange
ent
effects
doctor
dim
dell
de55
cuˇ
couple
communication
clock
choaⁿ
chhngh8
cheⁿ
chance
buˊ
brand
branch
bone
bo3
bió
bell
ama
aim
agent
Zin
Zepp
Zak
Yoenis
Yeh
Years
Yaris
Yamaha
YUI
YEAR
Worship
Wisconsin
Winnie
Whisky
Wheel
Werner
WGC
WAY
Vehicle
Variety
Valerie
VIDEO
Upper
UU
UHF
Tí
Toà
Tioh
Tiau3
Thunderbolt
Thanks
Teague
Talent
Tah8
Tad
TRE
TOTO
TOKIO
THA
TALK
T7
Sēng
Sum
Suh
Strategic
Spanish
Sovlang
Sor
Something
Socialist
Slo
Singles
Simona
Silvio
Silvia
Sign
Shima
Shannon
Sera
Secretary
Scream
Schengen
Sau
Satsuma
Sant
Sala
Sad
SUI
STA
SMART
SING
SIDE
Ryo
Root
Rin
Rifle
Redmi
Rb
Raven
Random
Ran
Ra
ROD
Queens
Qua
Programme
Predator
Pong
Pietro
Phoe5
Phiak8
Phantom
Perkins
Pel
Pegasus
Panel
Pali
Pal
Paint
P8
P226
Option
Oe2
OFF
Nov
Norris
Normal
Nor
Ngo
Networks
Nao
Nail
NXT
NM
NERV
NDAA
Mê
Must
Monta
Molly
Molina
Mitt
Missouri
Mississippi
Millennium
Mick
Metropolitan
Method
Meh
McCain
Maxim
Matrix
Maro
Marina
Marathon
Manson
Maine
MOM
MOA
MMORPG
MMA
MIS
M87
M26
M240
M1A2T
Lung
Lui
Lot
Liu2
Lind
Lib
Leica
Leaf
LeCoultre
Layer
Lam7
Labor
LW
LOEN
LAKIKILAKIKI
Ky
Kwan
Kuzma
Kuo
Kul
Kre
Kota
Kon
Kobo
Khîm
Khéng
Khoeh
Keroro
Kelvin
Kawa
Katy
Katherine
Kata
Kali
Kad
KOL
KLEIN
KJ
KIP
K8
João
Jana
Jal
JH
Ion
Ioh8
Interface
Inge
Indie
Imagine
IPCC
INCJ
ICRT
Hu5
Hoà
Holding
Hide
Helena
Hayat
Hara
Hahn
Hadid
HOE7
HLA
HIRO
Gîn
Gus
Gu7
Greene
Gravius
Gou
Gore
Gloucester
Glory
Gian5
Gentleman
Gateway
Gara
Gar
Gan2
GamesRadar
Galli
GV
GTP
GRA
GODIVA
GANGAN
G36
G13
Fur
Fro
Frei
Frankfurt
Fortune
Format
Fla
Fields
Fer
Fai
FactSet
FY
FFS
Eun
Encore
Encarnacion
Ear
EXE
EDG
ECA
Dynamic
Drake
Domain
Dodd
Dis
Dino
Ding
Diesel
Dha
Demi
Deli
Deborah
Dea
Dario
Cru
Cristina
Crime
Cream
Cotton
Contemporary
Conley
Chòe
Chong3
Chioh
Chien
Chicken
Chhu
Chandra
Chancellor
Chal
Chain
Cesar
Centroliner
CatchPlay
Catalogue
Carson
Carri
Campus
CSF
CRM
CPS
COOL
COFFEE
CIE
CHOC
CAA
C14
Buster
Burn
Bun7
Buffalo
Brewer
Brave
Booth
Bobo
Bis
Big5
Bentley
Benny
Belgium
Bali
BW
BRAVIA
BOXING
BOBBI
BOB
BINGO
BEE
BAE
Awa
Aug
Astra
Arm
Application
Antoni
Angry
Andres
An7
Amor
Amelia
Aman
Alabama
Airbus
Ae
Advisors
Aca
Abel
AWARD
ATL
ARC
APL
AKM
ABBA
A319
A20
9S
9M
8D
7mm
7G
6L
6147
5km
5903
5469
500K
4966
3mm
3952
36000
3584
3546
3019
2T
2940
2854
2823
2606
2489
2419
2365
2342
2331
2280
2117
2099
2045
2043
2034
1ppm
1306
1267
1108
10m
100km
100M
0x
0041
0002
##WS
##VR
##VER
##VD
##Tech
##TER
##RM
##Pe
##OI
##N8
##MM
##Ki
##In
##HL
##Ga
##GH
##FC
##DM
##Ca
##Box
##Bi
##BER
##380
##301
##150
##141
##041
##030
##Ｚ
##인
##성
##ート
##ライ
##インターチェンジ
##ました
##ぼう
##ほ
##へ
##せい
##して
##ز
##ю
##ц
##х
##μm
##κ
##ία
##ư
##Ē
##ām
##ür
##Í
##zone
##yk
##xia
##wire
##wang
##vs
##ved
##usa
##uni
##une
##uku
##tric
##tore
##tig
##sty
##stone
##sity
##sit
##sf
##see
##rse
##row
##rei
##quet
##qi
##post
##plus
##park
##osis
##orth
##ork
##org
##oin
##oat
##np
##nov
##not
##nit
##nca
##nar
##mys
##mak
##mac
##m2
##lit
##link
##law
##late
##kra
##kis
##kes
##izer
##iti
##ilo
##ife
##ible
##hor
##hit
##hiro
##hil
##hh
##hel
##hee
##hari
##gre
##gia
##fic
##ffer
##fel
##eze
##eva
##enta
##eal
##dou
##dorf
##doc
##dit
##dig
##dic
##dian
##dai
##cut
##cted
##cit
##chel
##bro
##bles
##berry
##ash
##app
##aci
𪁎
𤳙
ＳＥＣ
ＧＮＰ
ＡＰ
４Ｇ
綠
리
黟
頵
鉏
趵
謢
觱
襀
衲
蠳
蟌
薐
蕗
翥
羆
罾
罘
続
箜
竦
稲
祆
硌
狨
濆
溓
溈
満
湋
洒
榿
楢
椬
栲
枰
昐
搰
崍
姞
噚
唎
吥
厦
匧
劬
劄
刴
兹
价
㳜
ㄡ
ライ
ラ
ヤ
ピ
ゼ
ジャ
ひろ
ぐ
〃
י
Виноградов
χ
Π
āinn
Û
xio
wonder
wikipedia
wide
weeks
wedding
warming
vonˇ
union
una
tua
tsīng
tsáng
tsoá
tsiann
truth
transform
tissue
tiangˋ
tiab
tia7
thānn
throughout
tc
tank
taigi
ta7
suru
surface
sungˊ
suggests
subject
sti
ste
sta
split
sonˇ
sla
ski
siân
siànn
shunˋ
shongˇ
shen
shape
server
sb
save
sab
rules
rose
role
rhiug
respect
reg
ready
quite
qib
qiagˋ
pöo
pungˋ
position
platform
plans
piuˇ
piuˆ
phoē
phoâⁿ
phio5
phai
patients
pair
ngeh8
nerve
ne3
nay
nature
nap
nanˋ
nanˊ
myself
mungˋ
mua
mon
menˊ
lái
luä
los
loeh
lines
launch
lake
lab5
kíng
kuçh
koāiⁿ
koto
kioˇ
kinˇ
kinn3
jiàu
iunˇ
issues
ins
info
include
ieˊ
iann
iaN
iS
ht
hp
houh
hit8
hiong7
heem
hat8
hashtag
happen
hainn3
habˊ
haN5
gôan
growing
gou
golf
giàng
gin7
g8
fresh
forest
forced
font
flag
fla
expected
electronic
economy
earth
eV
doc
diversity
disp
deˊ
device
designed
deem
cycle
credit
cos
cooˇ
clothes
climate
cinˋ
chuiN7
choice
chiuN3
chhoe2
chenn
chen
chaˊ
ceu
certain
caused
cars
boost
bond
bian
beˋ
benˋ
bbi
baˊ
baseball
at17
ask
areas
application
annual
angel
academic
Zhang
Z80
YouGov
Yasiel
Yale
YE
X4
Wow
Woollim
Winner
Whale
Wester
WF
Vivo
Viola
Vintage
Vin
VV
VL
VIXX
Utricularia
USC
UNO
UMTS
Tune
Trophy
Trae
Township
Tourbillon
Tol
Tián
Ticket
Tháu
Thur
Thoi3
Thiau3
Thiah
Thek
Thames
Tec
Taste
Task
Tas
Taokara
Tanner
Tama
Tai3
TRI
TOP10
TNR
TDK
TDI
T15
Sylvia
Sy
Suite
Suisse
Stat
Stark
Stamp
Spears
Sonia
Somebody
Solution
Sleep
Siakam
Seymour
Seas
Sab
SXSW
SUMMER
STEAM
STAT
SSRI
SSG
SPV
SNL
SMB
SMA
SHU
SE7EN
SDRAM
Rust
Rom
Rocky
Ricardo
Rhino
Reverso
Renault
Renaissance
Relations
Rein
Reid
Reebok
Ratio
Rat
RTL
RSS
RJ
REN
Quin
Quake
Q8
Q6
Punk
Pulse
Product
Proc
Principles
Preston
Pray
PowerShot
Porto
Popular
Points
Pledis
Piper
Phoà
Phong3
Phase
Pes
Peng2
Patch
Parks
PIE
PER
PChome24h
Own
Ost
Olympus
Octo
OV
OSU
Nur
Nobody
Nim
Nerissa
Nama
Nag
NYSE
NYC
NSC
NPO
NCD
N5
Multiple
Mor
Monkey
Mobility
Mit
Missionary
Mis
Mil
Mia5
Meri
Melbourne
Massachusetts
Manhattan
Mahathir
Maddon
MUSE
MTX
MIZUNO
MI6
MBE
M15
M13
M11
LÎM
Luk
Lub
Louboutin
Lm
Lina
Liberal
Liar
Laboratory
LME
LIMITED
LGBTQ
LCS
LAM
Kö
KÀ
Kyo
Kus
Kuli
Kristen
Kor
Koai
Kheng7
Kardashian
Kakao
KIM
KAWS
KAL
Jules
Jing
Jewel
Jens
Jacoby
JG
Isa
Introduction
Intelligent
Infiniti
Iman
Imagination
Icyang
Ian2
ISIL
INT
IAEA
Hîm
Hí
Hà
Humphrey
Hoâiⁿ
Houh
Hotmail
Hiā
Hitachi
Hiro
Hernández
Heights
Hau2
Has
Hands
Hampton
Halo
Hachiko
HUD
HOLD
HKE
Gum
Guitar
Guido
Guan
Grade
Gor
Glock
Girardi
Gerhard
Gaultier
Gai
GRX
GMA
GDI
GCTF
Fuck
Fritz
Fowler
Fou
Fossil
Follie
Fo
Fintech
Fighting
Familia
FSB
FFT
F8
Ey
Evo
Everyday
Esther
Erica
Enzo
Engel
Emil
Electro
Dub
Drum
Download
Diver
Dip
Dil
Dig
Dia
Deron
Daw
Daria
Dag
DI
DEF
DC600V
Cuba
Craft
Coral
Concept
Clive
Cin
Chîⁿ
Ché
Christoph
Cho7
Chiesa
Cer
Cel
Cashman
Cartoon
Carr
Calle
COLOR
CMA
CGTN
Burnett
Burger
Brittany
Bom
Bolsonaro
Boe
Bil
Berlusconi
Beni
Bei
Beg
Bean
Banana
Baldwin
BSI
BOYS
BCW
BAM
Aziz
Aw
Austria
Asset
Asp
Asi
Around
Aqours
Angelique
Amos
Alvin
Alfonso
Alexandria
Aleppo
Accord
AcFun
Abe
AST
ASC
APO
AMI
ALC
AK47
ADSL
AABB
9C
8M
8859
8150
6456
6285
6169
5820
5534
5351
4m
4P
4142
4040
3b
3704
3662
35000
3350
3324
3050
2mm
2834
2717
2633
2530
2515
2321
2320
2231
2172
2141
2118
2042
200ml
1E
16G
160km
1361
1339
1298
1289
##WE
##UE
##TL
##Sp
##So
##Si
##Script
##R1
##QUE
##PG
##ONG
##Na
##NY
##Man
##LP
##Ja
##IK
##Hg
##HU
##H2
##Gi
##GT
##FP
##ESS
##Drive
##Che
##Bûn
##A3
##8000
##610
##210
##해
##정
##민
##ール
##ヲ
##ワー
##ドラ
##カル
##ゆ
##そう
##Ⅱ
##ล
##ง
##ق
##س
##ский
##во
##С
##ʁ
##ów
##çh
##ãh
##zia
##yon
##yle
##vol
##vit
##vie
##vey
##uti
##uke
##uN
##tze
##too
##tions
##tec
##sum
##ston
##sten
##stad
##sii
##sie
##sei
##run
##rri
##rop
##rod
##riti
##rino
##right
##rb
##rand
##rai
##rae
##pus
##pra
##ppe
##pis
##pel
##pc
##pal
##pak
##owski
##oso
##osi
##orum
##ogen
##nko
##ned
##nburg
##mura
##lyn
##ln
##lines
##lane
##kun
##iⁿ
##iga
##ify
##ifera
##iet
##ians
##iang
##iana
##hun
##had
##gno
##gg
##g7
##fire
##fil
##far
##eye
##eur
##etic
##eter
##esi
##erk
##eme
##ej
##eam
##data
##code
##chal
##cent
##cel
##cate
##bor
##bes
##bell
##bas
##avi
##aut
##ates
##aria
##aph
##ants
##amine
##aha
##ago
##abu
𤉙
𣳈
ＰＩＳＡ
ＯＩＥ
ＮＢＣ
ＧＷ
ＣＰ
ＢＰ
５Ｇ
陋
淚
김
黌
鱀
鰧
鬘
髙
颮
雩
鐠
鋱
釹
轡
蹚
諢
襛
裒
袴
薴
蓍
胆
耖
紆
篌
稙
磜
硓
硏
砝
盗
疳
璈
猪
熥
濊
渕
涙
泂
棓
暎
晣
昫
斎
搾
扽
户
廔
巋
巂
娳
奼
奓
塬
坏
囟
嘠
唦
哧
勲
俴
仼
亀
与
㝩
ワ
スパージョン
サン
ぼう
として
たか
けん
⑷
ش
к
Д
École
µ
zongˊ
yam
xy
xiogˋ
wrong
worth
wei
wear
ways
wait
villa
unique
túng
tãh
tsòng
tshú
tshí
tshuãh
tshiâⁿ
tshiunn
tshin
tshiann
tsau
tsam
translate
transfer
toˋ
toân
toaN3
tiamˇ
thui7
thio3
thinking
thiN3
tech
sòe
sâi
suān
surgery
ss
spirit
solution
smile
sli
sioN7
siaN7
sheˇ
sheet
sharp
share
sell
seed
sannh
samˆ
sales
rt
rice
reach
rather
quickly
pöng
programme
pra
pour
pou1
ponˋ
pongˆ
pog
pla
piann
phī
phäng
phoàn
phiâu
phiang5
peri
pack
p2
oct
ny
north
normal
ngiu
nganˊ
ngam
nga7
needs
narrative
nad
mungˇ
movement
mngh8
mmHg
minister
miauˊ
mei
medicine
mean
mat
mac
looked
lom
linked
letter
las
kuài
kuiN
kuah
ks
koai7
kimˊ
khú
khih8
kham5
ken
kai7
java
jan
iâng
ir
independent
imp
iC
hōan
hypo
hoann7
hiang
geh
gan7
ft
forever
finally
fever
famous
exam
era
enter
enjoy
endo
ended
emergency
ees
dump
driving
disc
direct
developed
dep
debt
danˋ
dang
dB
count
considered
conditions
concert
comp
committee
command
collection
chou3
choai7
chiaN7
chhioh8
chhioN7
charge
centre
cast
cannot
café
bung
bri
boys
bing
behavior
bea
bc
bbuˆ
aug
add
a8
ZH
Yus
Yuli
Yuan
Yaki
YUKI
YC
Y2K
XHTML
XE
Wy
Worldwide
Wit
Wee
Wait
Wainwright
WILD
Vine
ViewSonic
Vicomte
Veronica
Ventura
Ven
Vector
Ve
Uri
Una
Um
Ug
UVB
UNI
UE
UD
Tù
Té
Tuī
Tsun
Tsipras
Treasure
Topas
Tonal
Tomo
Tk
Tis
Tik
Tier
Thoè
Tho5
Tfuya
Terrace
Tax
Tauh
Tali
Tai5oanji7
TWS
TOL
TNA
TIO
THST
TANG
SÌN
Sync
Superstar
Stri
Strauss
Stellar
Springs
Sporting
Spade
Sounds
Soros
Sona
Sli
Slam
Skills
Ski
Sk
Sis
Sie
Shore
Shel
Shams
Seventeen
Sensor
Sem
Scientific
Sca
Saunier
Sasha
Sami
Saints
Saga
SY
STORY
SSA
SPORT
SISLEY
SHISHAMO
SHARP
SENG
SDL
SCR
SCANDAL
Rup
Ruben
Rocker
Robot
Rift
Ret
Rema
Religion
Region
Regi
Raz
Rangers
Ranger
RZ
RIAA
RAC
Qui
Question
QZ8501
Pàng
Pà
Pul
Prussia
Progress
Pri
PowerPoint
Pollock
Plum
Philippines
Phelps
Phang5
Petra
Peralta
Paz
Patterson
Parod
Parish
Pala
PY
PROJECT
PRI
PORTER
POLICE
PHI
PAY
PAS
P5
P30
Operations
OpenType
Ong7
Omni
Olive
OX
OSI
Novo
Notre
Notebook
Noe
Niconico
Ngu
Ng2
Newman
Ner
Navigator
Nau
Napa
Naga
NPD
NAR
Mystery
MyTV
Municipal
Moor
Mong
Minute
Milton
Mile
Milano
Mercer
Melissa
Meli
Meet
Medal
McG
Mbps
Maryland
Marti
Malik
Magnum
Mack
MICHEAL
MAMAMOO
MALL
M110
Lám
Lydia
Lut
Loán
Log
Linguistic
Linden
Liga
Liber
Liam7
Leung
Leopard
Legal
Lea
Large
Landing
LaLa
LUNA
LOHAS
LJPA
LCC
LAY
Kyu
Kum
Kuala
Kry
Koro
Kong3
KoaN7
Kloss
Kirby
Kiam5
Khiau
Kentucky
Kathleen
KPF
KOSPI
KOC
KKR
KKA
K20
Jou
Jennie
Jas
Jansen
Jacobus
Jab
JVC
JSON
Its
Isabel
Informer
Ina
INF
IMC
IDS
ICA
Hôtel
Há
Hussein
Hurricane
Huffington
Homo
Hoh8
Hoffman
Hng5
Him5
Hilfiger
Hidden
HiNet
Herder
Heinz
Hee
Hawthorne
Harvest
Halladay
Hali
Halep
Hague
HX
HOP
HOM
Gú
Gwen
Guillermo
Guild
Gren
Gre
Gospel
Gone
Ges
Gel
Gecko
Galliano
GSP
GH
GET
G0
Fri
Freak
Found
Fore
Fle
Flat
Flame
Fitness
Fil
Ferro
Fell
Fancy
FISU
FIRE
FACE
F6F
Exynos
Excellence
Examination
Evil
Erlang
Equi
Eo
Enterprises
Elise
Ele
Eidos
Eg
ENTERTAINMENT
END
EJB
EH
EDGE
EASY
Dul
Dress
Draghi
Dole
Dim
Dexter
Device
Deja
Deal
Deadline
Dart
Danielle
Dae
Dac
DSL
DANCE
D20
Curt
Cun
Crypto
Crow
Cron
Crash
Cou
Cos
Corel
Cor
Controller
Construction
Conservation
Colors
Coca
Cobb
Chô
Chloé
Chiung
Chiat
Chester
Chernobyl
Cheers
Cc
Cave
Catch
Casino
Candler
Caius
CSL
COPD
CIT
CHOCO
CDR
CBP
CAFE
C2C
Buzz
Budi
Bros
Broadway
Bride
Bree
Breaking
Bre
Boul
Bottom
Borough
Borders
Boost
Bone
Bolt
Bli
Bib
Bene
Belt
Baum
Bartolo
Banco
Balo
Bally
Ba7
BRI
BIO
BET
BAND
BAFTA
BAC
Ax
Automatic
Atkinson
Asteroid
Associated
Ashton
Arcade
Apps
Apo
Ape
Annual
Amoy
Amour
Aly
Altis
Alicia
Albany
Aid
Agent
Aga
Af
Abigail
Abd
AUTO
ATF
ANO
AIC
AGB
ADP
A50
A300
8081
7A
6F
5V
500CC
32G
3227
3212
3062
3031
3017
3003
2X
29772067
2970
29603456
256GB
2547
2542
2536
2436
2363
2310
2240
2112
2088
2086
2055
2036
1pai2
1koa2
1F
15K
1411
10g
1030002
0171
##Wo
##We
##View
##VS
##UK
##UI
##UB
##Share
##RP
##Q1
##OW
##NU
##Le
##LAND
##Jet
##INE
##GER
##Fo
##Fi
##Fe
##Com
##Chi
##CHI
##Ar
##720
##350
##270
##107
##020
##008
##일
##어
##아
##서
##チャ
##ガー
##アン
##ぼ
##น
##ве
##ая
##У
##Т
##ύ
##ο
##ũ
##œ
##ław
##āⁿ
##ät
##âu
##ás
##Å
##zzo
##zoo
##zar
##yx
##you
##yg
##ych
##yal
##work
##web
##vich
##ume
##ulu
##uen
##uel
##uchi
##ube
##tron
##tro
##tot
##tok
##tial
##thus
##tail
##rto
##rick
##rge
##reg
##rdi
##rad
##ption
##ppb
##pia
##phus
##para
##pai
##oth
##ogy
##oca
##o2
##nst
##matic
##mari
##lov
##long
##lau
##lands
##kus
##kle
##kins
##khi
##jit
##jar
##iso
##inc
##ige
##iest
##iel
##ids
##iba
##ias
##iak
##hid
##hian
##hes
##has
##gny
##g3
##fle
##fication
##ever
##etta
##enberg
##emia
##ede
##e7
##dz
##dro
##dler
##dad
##cular
##cis
##cide
##chy
##bridge
##bos
##berger
##band
##aⁿ
##asa
##ardo
𣛮
ＵＳＢ
ＵＮ
ＴＴ
ＴＲＦ
ＳＰＡ
ＳＯＧＯ
ＩＴ
ＩＮＧ
ＡＴＰ
鼢
鼇
黿
鵤
鵙
餮
靨
雫
鋉
鉲
酺
郾
邡
輳
贔
貺
貅
諼
詵
詧
薀
蒗
莙
苒
胘
綃
絵
経
紥
簕
竈
禑
砼
睍
皐
癘
琲
玦
炥
炁
潎
滝
溽
溞
汭
汧
櫞
樨
楬
栒
暦
昰
昪
攋
撍
捊
挂
戔
憙
惄
応
嵴
寀
嫰
姈
壮
堦
嚳
噙
卲
卣
卐
剮
儑
亓
両
㼈
㩆
ラジオ
ソ
ギ
への
には
になって
など
だい
せい
‑
ག
า
у
о
Ф
ə
Škoda
Āu
zugˋ
ziauˇ
zhiˆ
zadˋ
zad
yuˇ
york
yit
wretch
warm
wan
variable
v1
tānn
tuä
tsun7
tsui
tsiàn
tsho
tshioh
tshio
triple
treat
traffic
tough
thû
thíng
thiong
thank
tenn
ten2
teams
taxi
swa
surprise
suit
string
streets
sold
so7
sk
siuˋ
siog
sidˊ
shuˋ
shoi
ship
senior
select
sec
salt
sai5
rhythm
rhiˇ
rhiangˋ
rheuˇ
rhabˋ
rescue
required
relative
received
rec
reached
rare
rank
qinˇ
pênn
páng
puē
pump
protein
prevent
potn
picture
piauˋ
phānn
phonemic
pho5
phiânn
peu
pas
paiN3
pages
p53
organic
organ
ob
nuclear
ns
noh8
nmtl
niuˋ
ngan
network
nauˊ
native
naiˊ
mt
mouth
mountain
mor
mixed
miedˋ
middle
met
liöng
limited
license
letters
ledˋ
leading
largest
kùi
kàⁿ
kp
konˇ
kong7
kl
kiū
kiuh8
kie
kiangˇ
khīng
khenn
khai2
ket
ker
kar
kainn
ka1
iòng
ink
injury
init
inf
inds
improve
ima
ihN
ic
iRent
hòⁿ
hybrid
hue2
houin7
houN2
honˊ
honor
hongˊ
hom
hoN
hiⁿ
hied
herself
gn
gla
giōng
gal
fool
fell
fear
exercise
esp
entry
ene
eat
drink
draft
dodˋ
diabˋ
decades
danˇ
cur
crowd
col
coat
cla
civil
ciinˊ
ciangˆ
chôan
cháⁿ
chui5
chinˇ
chhok8
chhiáng
chhiau7
chhaN7
cheese
changing
ceec
bunˆ
brother
breath
boss
books
bongˊ
bling
bla
bits
birth
bio5
bet
benefit
beauty
bbadˋ
bal
aⁿ
awarded
aux
audio
association
ang7
ahead
af
addition
Zy
Zenbo
Zana
Zac
ZZ
ZX
ZONE
Yama
XIV
X9
Workshop
WordPress
Winfrey
WikiLeaks
Wer
Welsh
Wel
Waters
Ware
Wallet
WWW
W122
Viu
Vil
Vent
Vel
VOCs
VL80
VISION
VAL
VAIO
Utah
UNFCCC
Tzu
Tung
Trend
Translation
Trance
Tram
Toê
Tournament
Tori
Toa
Tiân
Tips
Thunder
Those
Thorn
Thiann
Theological
The3
Terror
TeX
Tango
Talib
Tale
TPU
TPC
TIÚN
TES
TEM
SĪ
São
SÌ
Syria
Syn
Sung
Strong
Stories
Stockholm
Stacy
Spot
Spiegel
Sour
Soundtrack
Soto
Sonny
Soe
Sn
SmackDown
Silverlight
Sight
Sidney
Showalter
Shou
Sherman
Shay
Sharon
Sergey
Sek8
Schwartz
Schiff
Sc
Satya
Sano
San2
STANAG
SSI
SSH
SMS
SLI
SIT
SIMD
SHO
SHI
SE2
Rut
Rudolf
Rua
Rodman
Rik
Riccardo
Rhodes
Researchers
Republican
Reichs
Reef
Redick
Recovery
Rebel
Rak
Rails
RTC
Quincy
Queenie
Qualifying
QWERTY
Q9
Q18
Q13
Primero
Pou2
Pot
Plato
Pir
Pim
Piguet
Phin2
Pere
Percy
Peng3
Pedroia
Pd
Payne
Papi
Panerai
Panay
Pakistan
PQ
PPC
PHS
PEOPLE
PAN
Overseas
Oris
Orchestra
Oprah
Okafor
Oi
Og
Objective
OMG
OD
Nya
Noel
Nin
Niko
Nih
Nie
Nex
Neumann
Neale
Navi
Nast
Nara
Napoli
NULL
NRC
NMR
Müller
Mus
Muret
Mul
Muk
Mouse
Mot
Moses
Moselle
Mort
Moran
Monk
Mok
Moela
Mob
Mint
Milos
Milo
Merrill
Melvin
Meghan
McKenzie
Mauro
Maritime
Maran
Mano
Mang
Mane
Malo
Magdalena
Maduro
MVC
MP4
MOON
MIUI
MIA
MCITP
M70
M20
Lynx
Luî
Lus
Luiz
Lucia
Longoria
Liōng
Lives
Liquid
Lines
Linde
Lid
Liberation
Leadership
Lanvin
Landry
Laguna
Lacoste
Lach
La5
LXX
LION
LHC
LGA
LFA
LCP
LAU
LADY
Koz
Klaus
Kla
Kiwebaby
Kimbrel
Kiau2
Khîn
Khoài
Khiàm
Khau3
Kan3
Kabupaten
KTM
KOS
KOK
KHI
KBO
KAN
K14
K12
Juno
Joc
Joaquin
Jericho
Jefferies
JAM
JAL
J5
Iverson
Isla
Interest
Ill
Ibn
ITO
ISU
IN5
IIF
Hǹg
Hö
Hâu
Hurd
Hunger
Hun2
Hoy
Houthi
Horton
Hort
Horace
Hira
Hindu
Hian
Helm
Hed
Hayden
Har
Hanson
Han2
Hack
HPLC
HIT
HAN
H7
Gul
Gui5
Grill
Gossip
Gok
Giân
Gilli
Geek
Gau
Gashina
Garage
Gail
GPA
GP3
GOLD
GOGO
GEO
GDPR
GABA
G12
Fus
Function
Foucault
Foix
Flores
Fleur
Fen
Femtocell
Feeling
FIN
Ez
Ext
Everybody
Europa
Eurasia
Ent
Emporio
Egan
Edo
EMU
EJ
Dwayne
Dru
Disk
Disaster
Dimitri
Digi
Det
Desktop
Database
Daniela
Dancer
DEMO
DEA
DCC
DBS
DAP
Custom
Cri
Corona
Cornelius
Copland
Constitution
Compa
Comfort
Coleman
Cn
Closer
Close
Clojure
Cities
Circuit
Chor
Chok8
Chióng
Chhng2
Champ
Cham
CeBIT
Cavalli
Cannon
Calhoun
Cad
CT273
CRS
CRO
CPBLTV
COR
COBRAS
CITES
CHN
CDMA2000
CASA
CAFÉ
But8
Bundes
Builder
Broad
Britton
Britney
Bri
Breath
Bray
Bran
Borg
Bordeaux
Bogut
Bitcoin
Birmingham
Bha
Bezos
Bert
Bern
Bena
Before
Beauvais
Bb
Based
Bara
Ban5
Bada
BOO
BO5
BMD
BCR
Az
Atelier
Atayal
Aston
Ast
Asik
Ase
Article
Arti
Arrieta
Arenado
AppWorks
Anggun
Andi
Ande
Ancient
Amp
Amiga
Alfa
Agu
Adler
AVBWU
ASM
ARE
AMS
AMR
AMA
ALMA
AGO
AEON
9921
9914
9001
8299
7C
70000
65536
6250
6182
6007
5871
5522
5250
50M
500cc
4x100
4chan
4M
4750
4725
4430
4032
3650
3550
3450
30M
3085
3060
3023
2x
2903
2791
2765
2715
2615
2595
2581
2523
2488
2472
2421
2383
2380
2352
22k
2285
2230
2225
2210
2190
2187
2125
2062
2047
1m
130H
12M
1149
10200
1000000
08000
0070
0061
##ZI
##YU
##YO
##X1
##WOOD
##WC
##USA
##UA
##Te
##Su
##Plus
##PPM
##PM
##IX
##IV
##GR
##GP
##Fa
##FO
##EK
##DP
##DD
##950
##888
##601
##320
##2016
##2012
##120
##７
##로
##기
##가
##ーン
##ント
##ニー
##クト
##エル
##ろう
##する
##げ
##ḥ
##อ
##ย
##ท
##ى
##ع
##נ
##ый
##ск
##ро
##ри
##ми
##ль
##ло
##да
##ар
##ан
##ό
##ος
##θ
##ř
##ńg
##ông
##én
##æ
##º
##zza
##zio
##zh
##yuki
##yte
##yri
##yli
##yla
##yev
##xu
##xe
##word
##wing
##wara
##vent
##uu
##uin
##ues
##uch
##tw
##tsu
##tsi
##tou
##tina
##tics
##teh
##teen
##sla
##sive
##sil
##schen
##rre
##rom
##rgi
##rap
##rant
##rans
##raj
##quist
##qua
##pper
##pon
##phe
##pes
##pers
##par
##ony
##onn
##ong2
##oku
##oint
##odi
##né
##nut
##ntin
##nol
##noi
##nium
##ngs
##ngen
##nberg
##nba
##nant
##name
##nac
##m²
##mel
##media
##may
##lite
##lini
##lies
##lde
##kW
##jon
##ière
##ivi
##iver
##ipo
##inen
##inae
##illi
##ieu
##iche
##iam
##hurst
##hur
##how
##hoff
##hof
##hma
##hei
##hea
##hand
##h7
##h2
##graphic
##goi
##goa2
##gma
##gang
##game
##form
##evi
##erra
##ering
##erf
##erd
##eno
##eit
##ees
##ebo
##ders
##cov
##chon
##chit
##chan
##ceae
##cci
##cca
##cas
##blo
##bha
##av
##arch
##anna
##anga
##ander
##ador
##ache
𧾷
ＶＩＰ
ＱＤＩＩ
ＬＧ
ＦＯＭＣ
ＥＣＢ
ＤＭ
ＤＪ
ＣＳ
ＡＭ
女
參
濫
박
鵯
鱝
鱅
鰷
鯻
鮒
鞮
鏻
鍹
銩
銍
蹩
賾
貊
豋
覇
蟛
螄
蜇
藶
薫
蕷
蕯
统
緄
睺
皞
画
甭
甖
玢
獬
狁
烝
瀲
澥
汚
殫
檣
権
樗
榦
検
棱
桜
栄
旛
捜
懣
愆
徃
崤
峘
壊
塲
囷
唪
哯
吽
卌
僬
䰾
䓬
ツ
ジ
ウオームス
アン
やま
ต
ה
про
Якобсон
Φ
Λ
ōm
â
zienˋ
zhunˋ
zhenˆ
zen
zed
yun
wouldn
wine
voiced
vocal
violence
victory
v43n3
v2
utopia
uns
universal
units
uainn
tänn
tue
tsýt
tsiáu
tsiàng
tsháng
tshài
tshuh
tshoh
tshiūnn
tshián
tsha
tseh
tsa2
tomorrow
toklip
tit7
thènn
thuí
though
thiam7
theorem
theng
teedˊ
tape
sō
sìng
sweat
sungˋ
stu
strike
stories
south
sooˋ
sonˊ
software
soe5
slow
sil
sien
sheep
seˆ
serious
science
scene
route
roads
ride
rhiˋ
rham
resolution
representation
regular
reality
põh
progress
pm2
piáng
piu
phãk
phoann7
phoann3
phau5
peak
paˇ
passed
opened
nóo
nugˋ
novel
nou2
none
noise
ngóo
ngoˇ
ngiong2
ngianˇ
ngamˋ
nedˋ
n5
mōe
moiˇ
missing
mine
meˊ
meˇ
mall
lìng
lài
losing
looˊ
liauˋ
kuî
kuanˋ
kor
knowledge
kn
kiuⁿ
kih8
kiem
khöng
khiâu
khanpang
keyboard
kamˊ
kamˇ
joē
jiōng
jienˋ
jian
jam
ion
increased
ina
iau1
iCHEF
hőng
hypothesis
huãh
huân
huán
houN1
hodˋ
hiànn
historical
hiau1
het
he1
happened
haiN5
gân
gá
glo
gis
giangˊ
giamˋ
gan
gain
fourth
formal
fork
firm
filter
figures
failure
evolution
eti
established
election
eine
effective
editor
draw
dll
distribution
diseases
discovered
director
dig
diamond
dev
det
defeat
daˆ
daughter
dance
daiˊ
cun
cui
cra
cow
context
contain
condition
concern
compound
compared
coast
clairelu703
chîm
chiˊ
chiun
chiang
chhím
chhiá
chhauh8
cheer
cha5
cases
canˇ
calls
cake
bàng
bre
booˆ
boot
biân
binary
ber
below
bbadˊ
bas
anything
alternative
aircraft
agree
agency
advanced
aba
a4
Zoe
Zico
ZB
Yoko
Yee
Yam
YT
YI
Xen
XMM
Wyman
Wonderful
Wire
Wills
Willem
Wife
Wick
Whole
Weiss
WebKit
Wealth
Warhol
Walsh
Walser
WTF
W123
Vr
Vos
Volunteer
Volk
Visit
Virus
Vidol
Vernon
Vau
Vat
Vargas
Vanguard
Vale
V0
Utley
Universities
Une
Ud
TŌ
Tãk
Twilight
Turnbull
Tudor
Trin
Tric
Trial
Tong2
Toe
Tiāⁿ
Tizzy
Tiok
Timor
Tie
Thò
Thap
Tet
Tess
Tequila
Teheran
Tapangu
TRU
TPE48
TMB
THO
TAI5
Sóo
Sze
Syndergaard
Sutton
Sundar
Summers
Suit
Subaru
Stéphane
Stre
Standards
Spirits
Span
Song2
Someone
Soler
Socrates
Sko
Sister
Since
Sinai
Silk
Signal
Sherry
Shelby
Shea
Shar
Sham
Senlis
Schi
Scan
Scala
Sandoval
Samp
Sales
Saka
Sahara
Sage
SRB
SPEC
SOA
SIO
SID
SDS
SDP
SCAR
SAMPA
SAL
Rosario
Ros
Roots
Romney
Rolf
Rochester
Rit
Rising
Ris
Rie
Request
Renee
Rendon
Reference
Rear
Raul
Rate
Rare
Rado
RTS
RPM
RPK
RIA
RAI
Q11
Pte
Psi
Pré
Protect
Prop
Prat
Pr
Porta
Pong5
Pomellato
Pok8
Poetry
Plu
Plc
Pieter
Piece
Pian2
Peru
Peep
Pearce
Paxton
Pani
PTC
PON
PLAYBOY
PINK
Ovi
Ot
Osama
Olson
Olga
Oath
OVER
Num
Nit
Negro
Nars
Nailong
Nad
NaCl
NINE
Mountains
Monument
Montbard
Montana
Mons
Moments
Molecular
Miuccia
Mikimoto
Michal
Mesa
Mens
Mela
Megumi
McGrady
Maur
Mathematica
Maryknoll
Martínez
Martha
Maris
Marg
Marble
Mansion
Manning
Manfred
Making
Magna
Maas
MSNBC
MRT
MR2
MPI
MON
MEL
MDR
MBT
MARC
MADE
M31
Lû
Lum
Lovers
Lorenz
Looking
Lola
Loa
Lisieux
Lime
Lieu
Liap
Ley
Levy
Lep
Leisure
Leila
Lancaster
Lago
Laden
LaVine
LEDinside
LARP
L5
KwK
Kur
Kri
Kr
Kop
Koe2
Knights
Kinsler
Khùn
Khiong
Khiam3
Khat
Khashoggi
Kazu
Kale
Kahn
Kaba
KIC
Jur
Jungle
Julien
Jiang
Jer
Jeep
Jame
JV
JUST
Iso
Isabella
Io5
Investments
Interview
Institut
Ins
Ino
Illi
Igor
Ignatius
Ie
Ida
Ic
Iam
IW
INC
IMI
IME
IJ
IIS
IDOL
ID4
ICS
ICIJ
Hê
Hâ
Hydra
Hus
HouN3
Honor
HoN3
Hir
Hig
Hendricks
Heli
Heim
Hei
Heber
Heat
Hear
Heads
Haru
Hao
HST
HOPE
HK416
GŌ
Gê
Gâi
Gut
Guillaume
Gue
Grin
Griffith
Grenoble
Goose
Goldschmidt
Goh
Gleyber
Ginger
Gin5
Gim
Giannini
Gha
Gert
Geographic
Gemini
Gareth
Gamma
Gama
Gallinari
GTS
GTR
GPRS
GOA2
Félix
Fury
Fugue
Fre
Frame
Forte
Foodpanda
Fog
Flu
Flowers
Flex
Flag
Fix
Fitzgerald
Finley
Finder
Fara
Fame
Faculty
Fabric
FRIENDS
FIP
FI
FAR
FAO
F7
F6
F10
Event
Evanston
Esta
Essex
Engl
Endo
Emergency
Emanuel
Elementary
Ela
EcoBoost
EVO
EMA
EHT
ECC
During
Dubai
DualShock
Drink
Doodle
Domo
Dogg
DoCoMo
Dir
Diamonds
Devon
Developer
Destiny
Dent
Davey
Dato
DSi
DRTS
DOME
DMG
DEL
DCT
D8
D100
Cycle
Cui
Crowder
Critical
Cove
Cour
Corolla
Cornwall
Conte
Condor
Conce
Comparative
Communist
Cod
Clifford
Cli
Clemens
Claudia
Chim2
Chiam7
Chhiūⁿ
Chel
Character
Carsten
Carry
Carnival
Carney
Cage
CUE
CTS
CTF
COMIC
COME
CHH
CFU
CF6
CERN
CEC
CD1
CCA
CASE
CAMP
Button
Burton
Brun
Browne
Brisbane
Brigade
Brazil
Brandy
Borland
Bono
Bonds
Bogaerts
Blow
Birthday
Bic
Bian
Bi5
Berk
Benoit
Bellinger
Bek
Beh8
BeeTalk
Bebe
Batum
Barr
Barbour
Barbie
Bao
Bandar
Ban2
Bagnères
Badminton
Babi
Baa
BY2
BNP
BBP
BATTLE
BAL
B10
Avant
Av
Aunt
Augustine
Assistant
Arya
Arnaud
Ariza
Aran
Applied
Anu
Andersson
Alle
Alexei
Ais
Ai2
Adventures
Ade
Abreu
Aberdeen
ATE
AM2
ACK
ABAC
AAV
A18
9x
9X
8966
7736
75000
6mm
6202
5th
5840
5264
50mm
4mm
4minute
4a
4E
4960
4435
4410
40g
40M
4042
4027
3km
3a
3999
3850
35mm
3520
3322
3293
3254
3131
3029
2km
2b
2960
2860
2847
2845
2838
2833
2770
2736
2728
2723
2630
2620
2601
2587
2570
2540
2531
250cc
2486
2485
2480
2428
2427
2359
2336
2328
2302
2199
2110
2065
2058
2041
2037
200K
1W
1Q
1G
15E
12V
12345
11a
10700009
10700003
10600
10500000
0972
01ppm
00F6
##ZU
##YS
##UX
##Tu
##TON
##TB
##St
##Soft
##Po
##Pi
##PU
##OG
##No
##NH
##Maker
##MAX
##LINE
##KS
##ITY
##IB
##GHT
##F1
##Ex
##DL
##CR
##COM
##Bus
##BT
##AX
##911
##750
##731
##543
##321
##1A
##122
##115
##110
##102
##003
##ｋ
##Ｑ
##을
##스
##수
##보
##는
##군
##ース
##レー
##ラン
##ャ
##トラ
##ゼ
##ジャ
##コン
##アー
##ほう
##けん
##がわ
##ت
##ор
##ле
##ей
##И
##φ
##ǹg
##ő
##ēng
##Ā
##ün
##õk
##ñ
##în
##ên
##ér
##äu
##ßen
##zzi
##yp
##yana
##wr
##wear
##wald
##wad
##vik
##try
##trin
##tr
##tory
##tif
##tet
##tc
##tang
##tad
##sī
##stro
##stadt
##ssen
##spi
##sek
##scu
##schaft
##sca
##sc
##say
##sang
##sai
##rul
##rst
##rro
##rez
##rey
##rda
##raz
##rau
##rator
##rag
##rab
##pul
##pop
##pn
##platz
##part
##own
##ovich
##osh
##orm
##oph
##oor
##ool
##oll
##oides
##ogi
##nim
##ngi
##nci
##nau
##mun
##mu
##mbe
##map
##maker
##lé
##lom
##load
##lls
##lling
##live
##lish
##lina
##liche
##lat
##kka
##khe
##jk
##iy
##ista
##isi
##ised
##ingen
##info
##iku
##iers
##ican
##hya
##hwa
##holm
##hman
##hau
##hap
##hang
##fte
##flower
##fit
##etto
##erba
##eous
##endi
##eco
##dov
##dium
##dh
##db
##dance
##cre
##craft
##cot
##cop
##cet
##cale
##cai
##brook
##bl
##bio
##beng
##bc
##aza
##ave
##asu
##ars
##aq
##apo
##api
##anto
##anc
##amo
##amat
##abi
𪖐
ＶＲ
ＴＮＲ
ＳＧＳ
ＭＯＤ
ＦＡＲＣ
１９
阮
了
說
錄
미
齾
齻
鷙
魎
騜
霨
闘
譓
觚
衽
蠘
蝣
蕥
蓪
萮
腊
脰
耋
繖
縋
紱
紤
筮
竸
磔
瘌
疪
瓛
瑊
琷
珝
熲
熜
熁
濉
殄
槊
榼
梣
栻
晸
擖
捯
戩
憖
彀
庒
嵎
堝
埈
垸
嘁
嗾
吖
厔
勥
傖
俣
俅
乱
丿
ヶ
ポ
ブ
ネ
ケ
アイ
べ
ぬ
しゅ
かな
あい
น
ב
язык
а
Ка
К
Α
ʃ
İ
Ùi
ziug
ziangˇ
zhug
zhebˋ
zenˋ
zauˇ
xiongˇ
worst
winning
west
weather
wasn
vud
vessel
vernacular
ven
various
variety
vangˊ
v47n3
v4
v1n8
uänn
usually
upon
uno
uncle
tōaⁿ
tòm
tur
tuiˊ
tuah
tsōng
tsı
tsènn
tsän
tsâng
tsiõh
tshū
tsháinn
tshua
tshat
tru
tronic
trick
toiˊ
tm
thuah
thio5
theu3
tennis
tempo
teeuˋ
t1
sīⁿ
sóa
synthesis
stone
stock
sto
spent
speaker
soó
smoking
smoke
siūnn
simply
sight
sie
sidˋ
shoot
sheˊ
sets
session
separate
schools
schema
sc
sal
ré
runs
rifle
rhau
revealed
reception
recently
qiog
puçh
protest
presidential
presence
poāⁿ
pox
powerful
pongˊ
politics
poat
plate
pk
pic
piangˋ
phòo
phîn
phinn
phin5
pc
pauˆ
older
oiˋ
offered
nó
nuā
nose
ng7
neemˇ
mín
mph
mp
moved
mot
moe2
miles
miaˊ
methods
meri
matrix
mate
mart
mari
magic
lûi
luiˊ
luiˇ
looˋ
limˋ
li55
lemˋ
league
lamb
kuán
kuiˆ
ku5
kiānn
kiau5
kiangˋ
khóo
khî
khçh
khueh
khuan
khe7
khah4
kebˊ
kcg
kHz
joy
joke
jin2
jiat
iāng
iám
ix
ipad
ios
io3
investigation
introduction
ine
implement
images
ienˋ
iPhone4S
iM
hùi
huà
husband
huann7
hom7
hoh
hir
hinet
hid
hero
hello
hell
heemˋ
haⁿ
hagˋ
gûi
géng
gp
gouh
gou3
goal
gió
giving
gift
gender
gd
gangˊ
gallery
fort
forces
focus
fis
finger
fifth
feed
features
failed
fagˋ
factors
experts
environment
elite
either
ein
ei
effort
eating
ear
ea
eDonkey
e8
dra
doiˇ
doble
diuˊ
dirty
dinˋ
dinner
dh
department
deep
dadˋ
cyber
constant
conf
comments
column
coiˊ
cli
cia
chàng
chuiˋ
chonˇ
chite5
chhû
chhiN5
chaiN
ceremony
carrier
cang
calling
bä
bumbler
built
bueh
broke
brew
bot
blind
beers
bay
baobab
az
av
aus
audience
architecture
ant
angˋ
allowed
ali
accent
Yon
Yit
Yikong
Yandex
YOUR
YOHO
Y3
Xilinx
Xander
XXXX
XM1
Wrestling
Workers
Wool
Witte
Witt
WinTV
Wimbledon
Wifi
Wes
Welt
Weis
Wawrinka
Waterloo
Wash
Waltz
Walther
Walls
Walkman
WTI
WORKS
WONDER
WN
WJ
WIMP
WHITE
WDC
W1
Votto
Vote
Voices
Vietnamese
Vid
Verde
Vega
Variation
VVT
VOL
VIS
VILLA
Upon
Unter
Unico
Ung
Ulster
Ue
UTC12
USR
UGC
U1
Tyronn
Twenty
Tul
Tsing
Troyes
Tron
Trey
Traveler
Trace
Tools
Toko
Tm
Tl
Tiû
Titanic
Tian2
Thàu
Thio
Theodor
Thang5
Thal
Tex
Tessera
Term
Tei
Tape
Tana
Talmage
Tales
TZ
TVS
TST
TSM
TPG
TOWN
TMD
TAP
T0
Sìⁿ
Swedish
Svetlana
Superdry
Structure
String
Stra
Sponichi
Soup
Soan2
Sne
Slip
Sioh
Sime
Sik
Siemens
Siann2
Sia5
Shui
Shih
Sharif
Serif
Sep
Selena
Sela
Secure
Secondary
Sd
Schools
Scholar
Schneider
Sato
Satellite
Sars
Sans
Sanctuary
Sammy
Saleh
Sakura
Sah
Saba
SaaS
SWI
STAND
SS9
SPE
SP1
SONG
SOAT
SNOOPY
SIAU
SCB
SANA
SAF
SAAB
Ryzen
Rural
Rory
Roo
Rollins
Robuchon
Riva
Rider
Rhône
Revo
Renho7
Rena
Remote
Reh
Ranking
Randolph
Railroad
Rahman
Rae
RTM
RQ
RPC
ROV
ROSA
REB
R17
QUA
QB
PwC
Publisher
Products
Process
Por
Polish
Pole
Pluto
Platinum
Pinyin
Pill
Pilgrim
Pica
Piau2
Piah
Phra
Pho2
Pharo
Pee
Pea
Pe3
Pavilion
Patri
Pas
Pap
Pan2
Pale
Pai5
PWM
PMP
PLANET
PLA
PIP
PCT
PBA
P20
P12
Oxide
Ortega
Org
Opteron
OpenSSL
Ola
Okayama
Nut
Nori
Norbu
Nng3
Ninja
Nik
Ngiâ
NewYork
Nel
Nau2
Naa10p
NZ
NSW
NIGHT
NIC
NHN
N6
Myself
Myr
Myo
Mut
Mustafa
Moro
Moreno
Montbéliard
Mobile01
Miya
Mitsubishi
Mist
Missile
Miracle
Mino
Mines
Mim
Mili
Mercier
Menu
Meeting
Meat
McCo
Maz
Matter
Materials
Masu
Massey
Marty
Marcelo
Manka
Malay
Mai2
MTU
MSP
MSG
MS10
MPS
MOT
MONSTER
MJ116
MIP
MFA
MEI
MEDIA
MCL
MATLAB
M82
M25
M1905
M113
Luo
Lug
Lower
Lowell
Louisiana
Lod
Liv
Linguistics
Limb
Lifetime
Liang
Lew
Lenovo
Leh
Lar
LJ
LEE
LAND
Kyr
Krista
Kotaku
Kot
Koma
Kola
Kol
KinKi
Khòaⁿ
Khou3
Khiang3
Kentavious
Kem
Katz
Karp
Karma
Kae
KOI
Jrue
Jiok8
Jeans
Jeanne
Jarrod
Jarrett
Jai
Jacky
Jac
Jabari
JaVale
JPMorgan
JOY
JKT48
JIA
Ismail
Isis
Iok8
Interchange
Integrated
Inno
Infantry
Indi
InS
Imaging
Identity
ISO1
ISI
IPX
IOS
IAST
Hul
Hug
Hue
HowHow
Houl
Honeywell
Hindi
Hil
Hert
Herb
Henning
HehN
Hb
Hayes
Hawke
Hasan
Harley
Harald
Hanley
Hammond
Halloween
Haf
HSDPA
HKG3
HITCON
HIM
HANA
HAC
Gū
Gustavo
Gurriel
Guinea
Guil
Guess
Gros
Gris
Grammy
Grammar
Gondor
Gom
Gladstone
Glacier
Gift
Gideon
Ghana
Geno
García
Gali
Gad
GP40
GOGORO
GLaDOS
GIGI
GFRIEND
GE222
G40
G16
Fuller
Fry
Frey
Franck
Fortran
Forces
Fnatic
Flow
Flore
Fidel
Ferre
Female
February
Feb
Fay
Falling
Fal
FaceBook
Fabio
FULL
FINAL
FENDI
FARC
F9
Erich
Epstein
Enter
Eno
Enc
Elton
Eliot
Elephant
Elan
Ego
Edit
ESR
ESC
EMU700
ELA
EF1
EDM
ECU
ECMWF
EAST
E34
Dust
Dum
Drug
Doty
Done
Dolorosa
Dolby
Dok
Dogs
Doe
Dirty
Dion
Didier
Dickson
Designer
Desert
Deng
Dele
Deco
Decade
Dane
DailyView
Dahl
DKNY
DJSI
DIP
DCCC
Cyrix
Cul
Crucell
Corre
Corn
Cookies
Coo
Connection
Condom
Cond
Colonel
Cocoa
Cock
Clock
Classical
Citigroup
Christensen
ChoaN5
Chiu3
Childhood
Chhián
ChhiuN2
Chhiat
Chet
Chem
Charania
Castillo
Carmen
Capsule
Capa
Camel
CUS
CRH380A
CRC
CNET
CI1
CBN
CAL
By2
Bunny
Bukit
Buffet
Brin
Brace
Bos
Bod
Boc
BoA
Blizzard
Bliss
Bitter
Bih
Bigorre
Beltre
Becky
Bavius
Baume
Bau
Bates
Barney
Barb
Bai2
Baha
BYE
BSA
BOu7
BABY
Ayu
Avi
Automotive
Automobile
Austronesian
Auburn
Arri
Aron
Argo
Archive
Applications
Appa
Annex
Amr
Americans
Amar
Ally
Allmusic
Alison
Alexi
Alc
Agriculture
Aesop
Adele
Adelaide
Ach
AccuWeather
Acclaim
Abs
Abbas
AMOi
ALT
AIK
AGE
ACLU
ACA
ABCD
AAV7
A25
A19
9G
80km
8008
7p
75mm
6702
6150
6111
5GB
5F
5211
512GB
4k
4cm
4F
4180
4130
4120
40K
4017
400m
4008
3m
37B
3705
3690
3660
3596
3443
3388
3383
3360
3356
3339
3333
32000
3080
3068
3041
3040
3036
3030
3014
3002
2m
2k
2TV
2R
2N
28K
2835
2818
2788
2771
2731
2704
2660
2625
2590
2568
2533
2465
2374
2369
2351
2316
23000
2275
2270
2228
2223
2176
2134
2133
2083
2077
1UP
1P
19000
1353
10800004
10800002
10700004
10500002
10400003
10400002
10400
100k
0K
0933
0910
0823
0600
05ppm
00D6
001A
0006
##You
##TZ
##TIC
##RB
##RAM
##QL
##On
##ONE
##OA
##News
##MIN
##Lite
##Life
##Lab
##It
##IG
##HK
##HC
##FOR
##FH
##FG
##Data
##Cha
##CP
##CON
##CM
##C1
##Book
##BU
##BF
##7o
##550
##206
##121
##104
##103
##031
##016
##002
##ｅ
##ＳＡ
##ＮＡ
##ＤＡ
##화
##동
##국
##ンス
##ラー
##ラス
##ホール
##フェ
##ニア
##ップ
##シー
##コー
##ウス
##づ
##ちゃん
##たん
##かん
##いん
##เ
##ห
##ส
##ת
##ич
##ие
##де
##σ
##ρα
##ɪ
##əʁ
##ś
##ğ
##ę
##āt
##ður
##ève
##ères
##âⁿ
##ál
##ái
##àⁿ
##Ú
##ÊNG
##ÀN
##zb
##zaki
##yun
##yong
##yb
##vor
##vil
##vers
##vard
##usion
##urt
##uga
##uet
##uddin
##uck
##uci
##uca
##uba
##uar
##tria
##tp
##tov
##tors
##toni
##tol
##til
##tie
##tex
##tem
##tac
##sville
##sun
##sui
##ssar
##sou
##some
##shin
##scar
##sation
##sac
##rta
##rsion
##rmi
##rl
##rka
##rity
##rine
##rif
##rep
##rati
##rate
##rain
##rah
##rac
##qe
##pton
##phy
##phi
##phan
##page
##pack
##ouse
##oul
##oti
##ones
##ond
##oman
##oidea
##nw
##nton
##nter
##nou
##nite
##nent
##ndra
##nari
##n7
##mot
##mol
##mode
##meter
##mag
##lsk
##loop
##llus
##lier
##lers
##leg
##ldi
##lage
##lad
##kowski
##kk
##ked
##kam
##jer
##jay
##its
##istic
##imo
##iller
##igo
##igi
##idge
##ibi
##iac
##hut
##het
##hak
##graph
##grad
##glia
##gir
##ggi
##gens
##gasse
##fur
##fra
##fps
##fly
##fall
##eve
##erv
##erl
##enko
##ened
##ende
##emo
##emic
##ehr
##dl
##deri
##dec
##dB
##cto
##cta
##cri
##cie
##cial
##cco
##case
##bou
##bling
##bian
##bag
##arn
##arius
##aris
##ardi
##anta
##amb
##alen
##aja
##ait
##ades
##aco
𫝺
𩼧
ＭＳＣＩ
ＭＤ
ＩＦ
ＩＥ
ＩＡ
ＤＢＵ
ＡＴ
︿
林
滑
정
黽
鸌
鷳
鯢
髭
餸
韵
韡
静
隄
鎛
錇
鋮
鈇
鄣
郿
郞
郕
邗
遘
轔
躑
豕
訳
袛
袉
蠽
蠲
螅
蛣
薗
蓯
臾
肟
翀
级
繒
箶
碶
硿
畕
甡
琯
玕
獫
犅
熺
灩
澮
澪
滹
溲
溎
浠
氷
毁
檫
槧
椙
桕
枹
擯
揑
掽
掺
掲
挔
懽
归
帡
嶲
嵗
峁
宫
奩
堍
垻
垌
坭
囯
囔
卟
労
剸
僨
倓
仵
㽣
㧁
ボ
める
における
どう
たい
その
いち
〥
⟩
⟨
Ⅴ
क
س
ا
ע
א
стих
л
е
ψ
ν
Γ
ƒ
Ńg
īng
ö
în
zuˆ
ziabˋ
zhiuˋ
zaˋ
zam
ym
yaki
xiug
xid
windows
western
waste
warning
viral
v2n1
urban
understand
të
tèⁿ
tweet
tvbs
tuˋ
turtle
tui2
tsîn
tsäi
tsuē
tsun3
tsoa
tsiòng
tsiau
tsiann5
tsiam
tshî
tsai5
trust
truck
treatment
tod
tioN5
tiger
ticket
thýh
thread
thiu2
teen
technique
teaching
taˇ
tanˇ
suspect
sup
sungˇ
sugar
stuff
strength
storm
sth
steam
stars
soāiⁿ
sm
siuˊ
siaˊ
shut
shugˋ
sham
shad
services
sensor
send
seems
se5
scientists
sas
sadˊ
rs
remains
quick
qiau
pë
pâu
pt
province
prison
pri
poll
polar
pi5
phū
penn7
parts
palm
p1
oxygen
ot
operator
operations
nöo
nungˋ
numbers
note
noo
ning
ngiãuh
ngienˆ
ngamˊ
ngai5
neutrality
nForce
musical
multiple
moâi
mos
miwa
minˋ
mienˆ
metal
md
math
län
lop
loop
lonˊ
ln
lived
literacy
lis
lingua
liauh
lawyer
latest
lajiouh
kw
kuàn
kuainn
kouN5
koann2
kiuˊ
kiungˋ
kio2
kin3
khýt
khô
khiàng
khit8
khaón
kbit
kab
kJ
justice
joint
jimlee
iänn
issued
iru
instead
imagination
idv
hài
hydro
hurt
humans
huge
hoáⁿ
homo
holding
hmˇ
hiō
hinn3
hiedˊ
gé
gudˊ
guadˋ
gou2
gos
giong
gin3
gih
giagˋ
fund
fri
forecast
flo
fer
felt
feeling
fax
famille
exo
everyone
everyday
enn
eMarketer
eM
eB
e0
dynamic
domestic
dol
discourse
diongˊ
dimˆ
diag
devices
develop
desu
democracy
dear
date
damˊ
damage
cyclo
crew
crazy
crack
council
cou
corpus
contra
conference
commercial
colony
collect
closed
clearly
cinˊ
ciauˇ
choān
chosen
chiâm
chiuh8
chiok8
chiak
chhoân
chhiâ
chhihN
chham5
chadˋ
ceng
cangˇ
camˊ
byte
bull
breast
bowl
bottom
boredpanda
boh
bitch
biongˊ
biggest
bienˇ
beyond
benefits
bei
beach
bbs
bbongˋ
bbiˋ
basic
bakuh
aw
author
ass
aru
army
aq
apr
ao
anyone
amu
amazing
although
alle
aid
ai5
acute
ace
a1
Zr
Z81
Yusuf
Yulia
Yogo
Yas
YD
XZ
XJ
Wozniak
Woodstock
Woll
Wilfried
Were
Weber
Waterman
Warsaw
Wald
Waiting
Wagon
WY
WP8
WMO
WCDMA
Vul
Vucevic
Volt
VoIP
Viper
Villeret
Vienne
Verilog
Verb
Vena
Vala
Vai
VMS
VLT
VLC
VHQ
VG
V11
User
Usenet
Unc
USSR
UHD
U4
U22
Tâm
Tán
Tài
Tyr
Tw
Tutu
Tsá
Tsng
Tshi
Troll
Toys
Tourist
Tourism
Tool
Tiô
Tiunn
TiuN5
Title
Tip
Tiam
Thán
Through
Thro
Thousand
Thng
Thiem
Thanksgiving
Thanh
Telescope
Teenage
Tedros
Talbott
Tala
Tac
TWA
TIA
TAR
Sá
Syfy
Swim
Swi
Suà
Surf
Sula
Strato
Stick
Stephens
Stephan
Stade
Sportback
Sovereign
Soon
Soli
Sno
Sng2
Snap
Slimane
Sle
Slash
Sla
Skytrax
Skyscanner
Siâng
Singer
Signature
Shields
Sharing
Shad
Seⁿ
Sept
Senate
Seed
Sedeq
Scu
Scottish
Score
Schubert
Scher
Savage
Sanga
Sandwich
Sander
Same
Sama
Salsa
Salerio
SVT
SUNRISE
SUM
STOP
SSS
SSR
SRT
SQUARE
SPARK
SORRY
SME
SKIN
SEN
SDGs
SCE
SAB
Rye
Runner
Routledge
Rotem
Rota
Rot
Rodríguez
Robertus
Ribon
Rhapsody
Retro
Retail
Resistance
Reports
Reis
Reich
Register
Razer
Ravi
Rao
Rage
Rac
RTX
ROTC
REC
R11
Quoc
Qas
Qantas
QFII
Pô
Pyr
Punch
Puh
Pug
Prorsum
Prolog
Profi
Proceedings
Prius
Print
Prestige
Pres
Prairie
Posey
Porcello
Pony
Poet
Piàn
Picture
Picasso
PiaN3
Phut
PhiN7
Pew
Pettitte
Pers
Pera
Pend
Pencil
Pauline
Patr
Pash
Pari
Pant
PSN
PPSh
PPQ
POST
PONY
PIF
PDVSA
PCE
PART
P3C
P14
P11
Ouest
Ori
Ono
Oli
Oklahoma
Odyssey
Odd
Octa
Oct
Ob
Oasis
OPI
OCN
Nue
Nou
Nng2
Nis
Nir
Nicholls
Nh
Ngh
Netanyahu
Nay
NSS
Mä
Musée
Muscat
Mund
Mum
Muller
Much
Movi
Moustakas
Mole
Miz
Miley
Miele
Miao
Memo
Medium
Medi
Mead
Matthias
Mastercard
Mash
Markle
Marcos
Madrid
Machi
Mace
MTBE
MORE
MOE
MK1
MIM
MDI
MCA
MAL
M0
Lucie
Lowy
Lovelyz
Lords
Lorca
Lombard
Loh
Loeb
Loe
Lockheed
Lk
Liong2
Lillian
Lightning
Lex
Leng
Leipzig
Left
Lef
Leather
Lean
Le5
Lauri
Lands
Landkreis
Lakoff
Lada
Lad
LST
LOVER
LIGO
LG0
LDH
Kurz
Kung
Ku3
Koân
Korn
Kona
Kole
Kob
Klo
Khe3
Ked
Kaut
Kau5
Kathy
Karn
Karin
Kapapa
Kami
Kahabu
KPL
KOREA
KOR
KIKI
KHA
KCNA
K17
Justine
Jumo
Joo
Johanna
Jisoo
Jimenez
Jewelry
Jess
Jerusalem
Jap
Jaime
Jahlil
Jacqueline
Issue
Internationale
Integrity
Int
Innocent
Independence
Ind
Impossible
Imi
IgM
Id
Iang
IVPP
ISRO
ISO9001
INN
IMS
IML
IMDb
IIB
IDEA
ICBM
IBF
HyperTransport
Hwa
Huih
Hoè
Hoàn
Howe
Hostel
Horror
Horn
Holocaust
Hokkaido
Hog
Hoeh
Hoang
Hits
Historic
Hippo
Higgins
Hemi
Heathrow
Hawai
Hare
Harcourt
Hanna
Hancock
Hah8
Ha5
HUNTER
HUB
HII
HIDE
HID
HALL
H6
H4
Gy
Growth
Graff
Gori
Gomes
Godfrey
Glam
Gl
Giû
Girard
Gim2
Gilles
Gew
Germain
Geh8
Gazprom
Gare
GUTS
GTK
GRI
GRAND
GLP
GIA
GI2
GHP
GEN
GCB
GBK
G32
Fé
Fw
Fut
Fulateng
Fukuoka
Frédéric
Frye
Fried
Freed
Frazier
Fortis
Florian
Fishman
Fill
Fiat
Fest
Fernández
Federico
FSA
FRIDAY
FM10
FHD
FANTASY
Extension
Export
Euspira
Ettoday
Equity
Enes
EnergyTrend
Emp
Elo
Ellsbury
Ellington
Elf
Eight
Eddy
Eat
Easton
Ea
ESTA
EPI
E231
E22
Durham
Dupont
Duda
Dubuis
Doom
Dolphin
Doctors
Dixon
Diversity
Dit
Dinner
Dickey
Diary
Dew
Detroit
Detective
Dare
Danish
DSLR
DQ
DLE
DEN
DBP
DAY6
DAIGO
D90
D51
D35
Cyrus
Cyril
Cynthia
Cult
Cree
Creation
Cosmo
Cord
Conway
Consulting
Concepts
Complete
Coma
Colo
Colle
Coe
Clu
Clover
Client
Clarence
Cir
Cie
Cháu
Christy
Choa
Chiong2
Chile
Chic
Chiang2
ChiN3
Chhip
Cheer
Chatime
Charge
Channing
Champagne
Chakra
Ces
Centro
Cedar
Cay
Cau
Capela
Came
Cai
Cab
CRP
CRISPR
CONNECT
COD
CLS
CHIUN
CGRP
CFM
CFC
CER
CANDY
CAB
Bā
Butter
Bulletin
Buff
Buddha
Bucket
Brake
Boé
Bout
Boogie
Bol
Blooming
Blind
Bledsoe
Birds
Bibi
Bia
Bes
Ber
Bender
Bela
Bazaar
Bash
Bars
Baro
Bark
Baptiste
Bakr
BODY
BIA
BHP
BAI
BABYMETAL
B737
Avro
Avery
Auro
Arrow
Aristotle
Aria
Arbor
Andrei
Anastasia
Amman
Americano
Ame
Amari
Alti
Almighty
Alien
Alcides
Aj
Aih8
Agnieszka
AVI
AVEDA
ATENU
AM1
AIS
AIP
AGP
ACS
A95
A320neo
9m88
90000
8km
8101
8046
80000
7E
6km
6P
6GHz
6152
6120
5MW
5371
500M
4GHz
4650
4401
4147
4023
3ppm
3c
3X
3840
3768
3711
3563
3529
3510
3502
3480
3310
32C
3150
3088
3071
3022
3018
2a
2998
2959
2908
2889
2816
2705
2638
2637
2614
25B
2510
2497
2490
2464
2457
2441
2424
2401
2378
2373
2291
2269
2260
2258
2256
2239
2221
2220
21K
2193
2175
2170
2157
2154
2140
2107
20th
20M
2087
2085
2000CC
1E72
10th
10M
10700010
1050002
10400005
10300
100ml
0932
0500
0220
0200
00C
006E
006D
0050
004E
004D
0020
0012
##Xi
##XXX
##XI
##Wiki
##Vi
##Taiwan
##TW
##TOR
##TIN
##STA
##SN
##SB
##S2
##Ru
##RN
##RH
##Pay
##OU
##NET
##NER
##NCE
##Mar
##MT
##LR
##LLA
##IVE
##ICA
##He
##HER
##Gate
##GN
##FX
##EV
##EST
##EF
##EB
##Ci
##Car
##Cam
##Bar
##BP
##BLE
##Ah
##ART
##ARD
##940
##801
##775
##717
##666
##650
##5i
##560
##505
##323
##3000
##2O
##277
##197
##168
##125
##119
##113
##106
##0G
##014
##ｔ
##ｒ
##ＴＡ
##ＯＣ
##ＩＣ
##현
##진
##에
##대
##구
##ロン
##ベ
##パン
##トリ
##ディ
##ション
##ザ
##カー
##やま
##ばん
##では
##じん
##しゃ
##けい
##ある
##ა
##ค
##ور
##ح
##ام
##ук
##ин
##ώ
##λε
##ˈ
##ě
##č
##āng
##öl
##ées
##ção
##ç
##äng
##àu
##ài
##Ó
##È
##ÁN
##À
##³
##zt
##zl
##yf
##yd
##yard
##yam
##werk
##wave
##vr
##varman
##uss
##ulo
##uche
##tun
##tsch
##tm
##tl
##tica
##thon
##tera
##tead
##tau
##table
##t7
##sworth
##stre
##stin
##ssel
##sma
##sl
##sition
##sg
##schi
##rz
##rve
##rva
##rsi
##rock
##road
##rke
##rill
##rik
##rem
##rbi
##rance
##rama
##ppi
##pic
##pas
##oxi
##ovo
##otic
##orte
##orat
##onne
##oney
##ological
##oko
##oke
##oen
##odo
##oda
##oce
##ntu
##nsi
##nova
##noc
##nke
##nei
##nea
##nds
##ncourt
##nco
##nat
##mod
##mbi
##maz
##mau
##mato
##mala
##mad
##lun
##lop
##loo
##llon
##llen
##lius
##lib
##lac
##kóng
##kri
##kos
##kko
##kHz
##jas
##ivity
##iong
##inta
##inal
##ign
##iff
##ient
##idia
##iau
##iN
##hum
##hui
##hole
##hold
##hoe
##hle
##here
##hem
##heli
##hah
##gˋ
##gur
##gil
##ghan
##gha
##gd
##gation
##garh
##gad
##flu
##fli
##flex
##ester
##esia
##eric
##erger
##eren
##enes
##eman
##eil
##eed
##eas
##dri
##dol
##dg
##cti
##cor
##cil
##chie
##cg
##ced
##cea
##camp
##bur
##borg
##bic
##bers
##bb
##bay
##bak
##ava
##ault
##atch
##asy
##arto
##arov
##arian
##ape
##alt
##ako
##aim
##ael
##abo
𡞰
ｘ
ＴＭ
ＳＣ
ＳＡ
ＰＵ
ＰＳＩ
ＰＳ
ＮＬＤ
ＮＡＴＯ
ＩＰＰ
ＩＥＫ
ＩＥＡ
ＩＤＦ
ＣＮＳ
ＣＢＳ
ＢＯ
ＡＶ
ＡＰＰ
福
料
念
練
泌
率
裸
한
하
고
鵁
鱥
鰟
鮍
魑
髁
骹
騮
駄
餈
隠
鉾
釺
酎
躽
赶
讉
觥
螨
蝆
蛚
蘧
薳
蔆
蓂
蒄
芘
臌
脱
聃
罽
纛
縴
簥
簃
笫
祔
磻
盩
瘙
畋
璪
珦
牀
焠
滻
欏
檮
棼
梘
梉
朶
暪
晢
旯
挏
慓
惨
彘
帔
崆
宍
姼
姸
嚭
嚂
噫
嗥
叄
决
儈
侒
伻
䲗
㷍
ハイ
ザ
オー
んで
もの
ぶ
とも
です
そう
しま
している
いて
いた
④
מ
я
за
СПб
Жирмунский
υ
Κ
Θ
Ūi
ŋ
Ī
Église
zib
zhun
zhin
zhangˋ
zeˆ
yen
xim
x2
x1
worse
wish
wire
wealth
vowels
vitamin
vector
users
uih8
uann
tôo
tënn
tune
tuiˇ
tsōe
tsâu
tsian
tshī
tshóng
tshòng
tshàm
trend
trap
translation
training
tom
tl
tiàⁿ
tiuˇ
tinˊ
tim
tight
tick
tiang5
thòe
thîng
thà
thuân
thoaN2
thiām
thiòng
tha2
tg
terms
tenˋ
tenn7
tend
taioan
tainan
t2
sãh
symbol
switch
sum
suggest
stress
stream
square
spider
spell
sources
solar
siã
siug
sit7
sister
sis
significant
sich
siam5
shuffle
shongˊ
shogˋ
shib
shared
shake
serve
servant
sequence
sent
sel
seifu
seN2
scheme
ruling
rub
rod
rhiong
rhim
rhied
reti
recover
records
rear
reader
raised
qiˊqiogˋ
qiong
pî
pyr
putting
puiˇ
provision
protect
prof
principle
pressure
presented
prec
practice
por
pooˋ
pod
plc
pitch
pil
phûn
phö
phoo
phng
phiāng
phiàng
phiau5
phiang3
pheh
peer
pee
peN3
pauˊ
pauˇ
password
passengers
parliament
package
ouN
origin
ord
oral
ocean
oc
oann2
oaihN
nuä
noˊ
notice
nn3
nit
ngab
nemˋ
nem
nc
naˆ
munˋ
monument
modernity
mix
mira
miongˇ
mh
menu
meant
me11
mapframe
manˋ
majority
maintain
lying
lucky
lor
location
load
liagˋ
lia2
laiˊ
kīm
kóe
ky
kui1
koainn
knows
kla
kimˇ
kimo
kick
kiamˇ
kiah
khēng
khòe
khãp
khik
khiau5
kaˊ
kao
juä
iv
iron
intellectual
ieu
iRobot
iP
iA
hūi
häu
háⁿ
hongˋ
hoai
hiáⁿ
historic
hiongˇ
hinn
hc
hang3
hajime
hai3
guitar
gue
gross
gr
giãp
giu5
giongˋ
ging
giangˇ
fugˋ
fuck
fold
finˇ
fill
fiction
fake
exhibition
exclusive
everywhere
error
entertainment
engadget
ena
emp
eli
eleven
efficiency
eco
duo
dry
drugs
driver
drinking
dor
donˊ
doingˊ
dogs
doctors
dit
diet
diaˋ
developing
deedˊ
dc
dangerous
dal
daiˇ
create
cream
cre
cookie
compromise
colour
coach
classic
citizens
cis
cimˇ
chán
chronic
chil
chhoàng
chhiann2
chhiaN7
cheh8
cheap
chau7
ceˆ
category
cart
carry
capacity
cal
buài
bread
bow
bottle
booking
ble
binding
bih8
belong
beg
bee
bbanˇ
bbangˋ
bban
banˆ
auf
argument
appeared
apparently
apo
alert
aiˋ
airlines
agreement
aged
adore
ada
activities
aN
Zimmer
Zig
Zhuang
Zeit
Zar
Zan
Zaha
Zag
Z7
Yours
Yin
Yer
Yap
Xtreme
Xeon
XVII
Witch
Wissembourg
Wim
Wilkinson
Wig
Whip
Wey
Wein
Watt
Waste
Walla
WTC
WOWOW
WCBA
WAT
W121
Vino
Vie
Vest
Vertical
Versailles
Vene
Vazquez
Vatican
Vander
Vam
Valle
VOICE
VOD
VOC
VHF
V7
V4
Uy
Use
Ungian
Ull
Ukraine
USD
UIP
TĪ
Tá
Typhoon
Tus
Tui7
Tuh
Tsunami
Tsonga
Truman
Truck
Trident
Tribe
Toyz
Tomorrow
Tolo
Toll
Toledo
Tog
Toby
Toan7
Tiang
TiCl
Thunberg
Thiago
Terre
Tera
Teacher
Taroko
Taba
TVB8
TRIP
TOY
TOSHI
TO7
TIMES
THF
TFDA
TEP
TEC
TCC
TCA
TAN
T65
T13
Sòa
Szymboska
Swisher
Swanson
Swa
Suri
Sty
Stub
Stol
Stig
Starling
Staples
Spurgeon
Spor
Spoon
Speech
Speaker
Soy
Southeast
SourceForge
Soribada
Sons
Soccer
Snowden
Sneaker
Sna
Slater
Skylake
Sketch
Siû
Site
Sigur
Sigmodon
Shuttle
Shun
Should
Sheep
Shami
Shadows
Shack
Sey
Severino
Segal
Sed
Secu
Seb
Seager
Scientists
Schroder
Sawa
Sarrebourg
Sapi
Santi
Sali
Saladin
Sae
SUGIZO
STOXX
STO
STAGE
SS1
SPECIAL
SP2
SOHR
SOF
SOAP
SMT
SKS
SIS
SIP
SELECT
SEE
SCENE
SCADA
Rou
Rost
Ronnie
Rolls
Rol
Rogue
Rink
Rif
Ricci
Ribavirin
Resource
Regiment
Ree
Rede
Realmuto
Ratt
Rana
Rade
RY
RSV
ROG
ROAD
REV
Quintus
QEW
QD
Q12
Pù
Pyuma
Pump
Prote
Probe
Principal
Potro
Pond
Poh
Pogba
Podcast
Players
Pirate
Pinky
Phài
Phong
Phoe3
Phenom
Pereira
Pell
Peg
Pederson
Peck
Pata
Passat
Param
Papua
Palette
Palestine
Pain
Pages
Pace
PZ
PRE
PIZZA
PIT
PIM
PEG
PCA
PARS
PAM
P0
Oxygen
Ov
Orient
Organic
Opus
Optical
Oka
Octavia
Oba
OPUS
OLE
OLAY
OAN5
Norbert
Nomura
Nomad
Nishi
Nino
Nic
Ngi3
Ngai
Nespresso
Neh
Neb
Nd
Nava
Nautilus
Natalia
Namco
Nacional
NTSC
NTC
NSX
NNto2
NNhoe2
NMI
Méd
Mua
Mp
Moving
Motif
Moshe
Morrow
Moli
Mold
Module
Mobil
Misty
Milne
Mercury
Merchant
Mend
Mellon
Mea
McQueen
McLaren
Matsu
Marsan
Marques
Marilyn
Marian
Mant
Manda
Mam
Malaysian
Macdonald
Mab
MTK
MSDN
MRSA
MIN
MG42
MDA
MCV
MASN
MAO
MAKEUS
MAKE
MA2
M60A3
M203
M19
Luxury
Lup
Lu5
Loves
Lorraine
Lommedieu
Lips
Lip
Lich
License
Levine
Leopold
Leone
Leicester
Laws
Laughing
Lau3
Lamp
Laird
Lagarde
LOT
LOLLIPOP
LISP
LIO
LEVEL
LAD
L6
Kòng
KÓ
Kura
Kunst
Kub
Koáⁿ
Kont
Kom
Koi
Kluber
Kiu
Kirara
Kiok
Kino
Kind
Kimberly
Kidman
Khok8
Khiat
Khia5
Khalifa
Khaled
Kath
Karolina
Kade
KZ
KIA
KENG
KEK
K75
K0
Jurgen
Joko
Jokic
Jiau2
Jel
Jed
Jeb
Jau
Jama
Jakob
JSP
JOKER
JIT
Ivo
Ive
Ivanka
Intro
Interna
Influence
Infinite
Ilyasova
Ili
Ichiro
ITS
IRIS
INTERNATIONAL
IMG
IMA
ICI
ICG
IAD
Hyp
Hye
Hyatt
Hull
Hud
Hsin
Hsieh
Howell
HotCha
Horipro
Homosapiens
Hom2
Hof
Hng2
Hm5
Hiroshi
Hio
Hiau
Hiang3
Hetero
Herz
Herr
Herm
Hem
HeNh
HeN7
Haynes
Hawks
Haven
Hately
Hate
Hashimoto
Haro
Hardaway
Hannas
Hang5
Hallelujah
Hai3
Hab
Haas
HOW
HOK
HKG1
HJ
HERE
HAKSYSR
Guts
Guo
Gunn
Grim
Gregor
Greater
Gott
Goss
Goodwin
Goods
Goodman
Going
Glide
Glamour
Gióng
Giz
Giu
GiGi
Getchu
Georgius
Geb
GeV
Gaudens
Gandhi
Gallagher
Gabbana
GT2
GOTO
GENJI
GEC
GAT
G34
Futures
Fris
Frankie
Fournier
Fountain
Forms
Fletcher
Fleming
Fis
Fina
Filippo
Fifth
Ferrer
Ferrand
Fellow
Fedora
Fantasia
Fact
Faber
FRA
FL9
FIVE
FIM
FCA
Exi
Evernote
Eut
Eugenio
Essential
Espace
Esp
Esca
Erwin
Ersan
Environmental
Enigma
Emile
Embedded
Elroy
Ellison
Elisa
Elb
Editor
Edinson
ELLA
ELI
EIU
EF5
ED75
ECM
Dz
Due
Dudley
Dropbox
Dou
Dorn
Dore
Donuts
Domin
Direction
Direct3D
Dimension
Dieter
Deva
Deutsch
Desk
Desi
Deputy
Deluxe
Delhi
Declaration
Decatur
Deca
Debut
Debbie
Dealogic
Db
Dazs
Dax
Dau
Darius
Damiani
Dah
DTS
DSD
DH5
DH4
DAR
Côte
César
CyanogenMod
Curiosity
Creole
Crane
Corbin
Copper
Cop
Converse
Contact
Consortium
Connecticut
Cong
Conc
Commander
Comm
Colt
Cob
Cm
Cleveland
Claudio
Cine
Cinderella
Chéng
Chuk
Chui3
Chronicle
Chromium
Chriss
Chou7
Cheshire
Chee
Charl
Chang5
Chala
Cate
Casual
Cart
Carp
Carmel
Cann
Camden
Cambodia
Cali
Calendar
Cabo
CVC
CUDA
CTT
CSU
CRH
COO
CNRS
CNEX
CMB
CID
CHAR
CH3
CDP
CD2
CARE
Busters
Bugatti
Bue
Brussels
Bronx
Bridges
Brennan
Bram
Bradford
Bourbon
Bose
Bookstart
Bonus
Bling
Blank
Biáu
Bitch
Bik
Bie
Beu
Bernay
Bergerac
Beng2
Bello
Beli
Becker
Beau
Batman
Basilica
Barra
Barn
Bard
Barbora
Balda
Bain
Babylon
BPM
BOOST
BIT
BIN
BENZ
BASARA
BAKE
BAB
Azu
Avranches
Avatar
Aure
Aura
Assessment
Ass
Armor
Argentina
Aren
Arda
Ante
Ans
Anis
Andujar
Andrelton
Andersen
Among
Alzheimer
Alu
Altera
Allied
Alla
Alas
Akon
Akh
Aha
Advisory
Adtranz
Adhanom
Addison
Add
Activity
Acquisition
Acoustic
Abercrombie
AXN
AVR
ASI
ARP
APR
ANZ
AMO
AML
AID
AFA
ADA
ACI
ABF
AACSB
9904
8591
8016
7m
7007
6m
6C
6552
6243
6196
6173
6020
5x
5ml
5b
5a
58D
5678
50g
50K
5007
4b
4DX
4934
4927
47B
4480
4446
4334
4128
4050
4030
4026
400G
4006
4004
4003
3B3
3960
3649
3638
3626
3603
3570
3523
3512
34D
3454
3301
32K
3211
3090
3089
3049
2H
2Gb
2957
2950
2939
2913
2872
2861
2808
2793
2780
27208889
2713
2701
2699
2680
2617
2612
2600MHz
2592
2588
2576
2563
2562
2526
2524
2518
2517
2453
2440
2422
2411
2364
2358
2339
2307
2292
2281
2264
2245
2219
2215
2181
2180
2120
2108
20cm
2082
2067
2054
2053
200g
2000cc
13500
12m
11A
10mm
10900001
10800009
10800005
10800000
1070002
10700001
105mm
10500006
10500005
1040002
10300010
100Mbps
100G
0960
0950
0920
0650
0270
0160
##Ze
##X5
##Vision
##TEU
##Star
##Sports
##SR
##Ri
##RR
##RAN
##Page
##Now
##Mu
##Media
##Mac
##MAR
##LM
##LESS
##I3
##HN
##GM
##GG
##GC
##FR
##FLO
##ERA
##ECT
##E5
##Dr
##DT
##Cr
##Cal
##CU
##CAR
##As
##AW
##ATION
##990
##930
##915
##850
##7u
##611
##4A
##410
##393
##2A
##251
##234
##211
##208
##207
##205
##202
##2015
##199
##180
##170
##160
##140
##108
##0F
##015
##ａ
##ＲＳ
##은
##요
##영
##부
##レン
##ルド
##マー
##ファ
##ビー
##ナル
##シャ
##クル
##カリ
##らん
##ちゅう
##じゅう
##しま
##さい
##がく
##いた
##ạ
##ṣ
##ك
##э
##че
##ус
##ть
##ти
##п
##ны
##ия
##ий
##ет
##ев
##ός
##ương
##Ū
##ţ
##ōn
##ła
##āh
##ād
##ún
##ém
##él
##éc
##át
##ße
##Î
##zs
##zoa
##zem
##yt
##ystem
##yna
##yll
##yka
##yet
##yang
##xton
##xis
##xio
##xen
##wis
##will
##vest
##vert
##vera
##vati
##vat
##urd
##ump
##ulus
##té
##tul
##tten
##tso
##tru
##tream
##tom
##tne
##tli
##thro
##thr
##thang
##tani
##taiwan
##sur
##suk
##stream
##sted
##sr
##soft
##sman
##sler
##ske
##sim
##si7
##she
##sd
##sburg
##sb
##s2
##rya
##rtion
##rry
##rok
##roft
##rne
##rini
##riel
##rea
##rca
##rang
##rade
##rada
##quel
##pod
##pli
##pio
##peri
##peed
##pau
##pace
##owa
##ove
##oui
##oud
##orin
##oria
##ophil
##opa
##onium
##oms
##omer
##olin
##olia
##olat
##odu
##oche
##obi
##oad
##nx
##nni
##nj
##nid
##nick
##nian
##nhe
##ng2
##ndis
##ncy
##ncia
##navi
##nah
##nad
##mur
##mou
##mat
##mania
##lst
##logical
##llu
##liu
##liti
##lig
##lien
##lev
##lets
##lep
##leo
##lect
##last
##lash
##lari
##kou
##kina
##joy
##jor
##jm
##jia
##jev
##jen
##jal
##itu
##ities
##itia
##iter
##ital
##issa
##isation
##ious
##inus
##illo
##ilia
##ikov
##ibe
##iar
##hub
##hta
##hov
##hong
##hion
##hic
##hev
##hay
##hana
##h3
##guard
##gran
##gl
##gau
##ganj
##fus
##fri
##fla
##film
##file
##ffa
##fal
##esa
##eral
##ente
##enk
##emon
##eko
##eka
##eir
##efa
##eel
##eci
##eba
##dm
##dir
##dini
##dent
##cross
##cott
##cone
##coe
##clo
##ckel
##chs
##chiu
##celli
##cell
##bov
##bj
##bing
##bei
##bed
##base
##atta
##ating
##anus
##anda
##alle
##aid
##agen
##aan
𣻸
ＸＸＸ
ＴＲＡ
ＳＰ
ＰＥ
ＯＴＴ
ＭＳＮ
ＬＣＤ
ＥＴＡ
ＥＳ
ＤＡ
ＣＳＩＳ
ＡＡ
１３
１１
益
識
聯
勞
龎
鼽
麇
鬰
骺
験
靉
錩
錝
鋟
醂
鄠
鄘
郟
邉
辿
躅
褿
蟧
蝒
蚡
薷
薘
茌
胂
罫
给
繻
筴
窨
禔
矧
矞
眛
皤
癈
畛
琡
猢
狍
犇
燔
煐
炉
濼
沚
毐
歔
檡
樛
楮
栿
柙
枓
朓
朊
暻
攆
撑
摰
捥
悰
恋
怏
幛
帙
尫
寘
嬙
嫪
囮
嚈
噘
啹
唰
叶
厓
剜
兑
偊
倧
䕑
㬙
レバ
ラヂオ
ファイ
ナチス
チブス
ジヨン
コン
グ
キャ
まる
なき
でも
ちょう
だった
それ
きん
かばん
える
いずみたく
〤
〗
〖
‼
ན
ส
ด
ل
ל
э
т
п
Э
Ба
μm
α7
ʔ
ɔ
äm
áⁿ
zoom
ziugˋ
ziongˇ
zheˊ
zetima
zab
wz
write
woo
wavelet
wave
waters
ware
wants
wanna
vonˋ
vodka
virtual
vid
ved
v45n3
unn
tīm
twitch
tsip
tsioh
tshīng
tshē
tshîng
tshuàn
tshua7
tshiö
tshian
tsan
transition
tradition
tools
tol
token
toan2
tiän
tis
tinn7
tiamˊ
tiabˋ
tiaN3
thāu
thú
thóo
thänn
thousand
thi7
therapy
thanks
tetra
testing
tele
teeth
suè
sunˊ
sui3
suh8
suffered
stood
states
st
spokesman
sooˊ
soldiers
soil
soc
soaiN
smooth
slu
sle
slave
sites
siq
sig
sick
siaˇ
siangˋ
siN5
shoes
shiuˇ
shiuˆ
shark
served
seem
seal
schedule
sand
romantic
rival
rhiang
rheu
rg
reward
revolution
retr
restaurant
residents
res
religious
relations
relation
regime
ree
reduce
ranked
raising
raise
rail
rag
pīn
pôo
pòo
psi
proposal
promise
produced
pride
pray
pool
plastic
pid
phôo
phàn
phuh8
phiah4
phen
phaiN
peg
pec
particularly
particular
parti
pac
p3
outs
output
outoubai
ouh8
ou1
orbit
onˇ
omega
okwork
oi5
oh4
nu7
nova
notes
norm
nongˇ
niauh
ni3
ngôo
ngoˊ
ngienˊ
ngiemˇ
nemˇ
nanoe
naka
nak
n8
n3
móo
mäi
m³
myblog
mus
murder
moé
moz
mount
mood
mole
mobile01
minˇ
minute
microSD
mice
meter
meat
measured
mayor
mauˇ
matiiu
mana
mak
macro
mL
m5e
lãp
lãh
longi
lonesome
lob
liõk
liungˊ
liuh
lil
library
lia3
launched
laugh
lanˋ
kūi
kōo
kìnn
kìng
kuínn
kuánn
kuaiˋ
kt
kr
koái
kou7
kot
kos
killing
killer
kieˇ
khing
khann
kept
kauˊ
kapa
jpg
join
jobs
jien
jack
iˊ
iˇ
iànn
item
inˋ
individual
ill
identified
iT
iB
hur
hunt
humor
hoō
hole
hoNh
highly
hh
hetero
hea
harm
handle
hack
h4
gíng
guy
gut
gued
guang
greatest
gram
grace
gogoro
gli
giag
geenˇ
gayfriendly
gak
fus
functions
fue
fricative
franca
formed
forget
fore
fon
feb
fault
farm
fare
extreme
extension
expression
exc
eventually
eva
estimated
equal
elephant
element
egg
efforts
eS
dz
dys
dro
doubt
documents
divide
discover
diglossia
deco
decade
debate
dar
danger
d1
curve
cungˋ
cug
counter
correct
corn
cook
continuous
continent
contest
consumers
conservation
conclusion
comb
coal
classes
ciau
chunˋ
chon
chit7
chiam5
chhióng
chart
characters
cats
castle
carried
bü
burn
buck
buah
bright
bound
boaih
boai
blo
biâu
bil
bh
betit7
beshi
beating
bean
bbunˋ
battery
banned
bacteria
awa
authors
attacks
associated
aspect
arts
ano
anikhih
ako
agreed
adult
administration
admi
active
accident
accept
abs
Zverev
Zuma
Zol
Zimmermann
Zeller
Zap
ZUN
ZFC
ZEN
Z10
Yvonne
Yost
Yogi
Yoga
YMC
YM
YAN
Y4
XYZ
XXIII
XSLT
XSL
XPS
XDDD
X10
Win32
Willow
Wie
Wid
Weekend
Weapons
Wata
Wasser
Warm
Wam
Wag
Wad
WW
WANG
W2
Vou
Voltaire
Voi
Voe
Vl
Vit
Vios
Vigan
Victoire
Vicente
Vevo
VeryCD
Vell
Ved
Vara
Vanderbilt
Valen
VW
VUVU
VU
VTEC
VIZIO
VER
VEGF
V60
Uru
Ursula
Université
Uma
Uk
UTC18
USDA
USAID
Tōa
Twi
Tux
Tug
Trumbo
Trading
Tournon
Torino
Tomato
Toc
Timo
Tiida
Tibetan
Tib
Thunderbird
Thru
Thir
Thaⁿ
Thao
Tham3
Teri
Tejada
Teg
Tavakan
Tani
Tanaka
Tami
Talum
Tablo
TWIN
TUR
TTA
TSIA
TIS
THQ
THANG
TE2
TCS
T30
T25
T11
T10
Sébastien
Sánchez
Szymborska
Symphony
Symetra
Sweat
Swahili
Survival
Strange
Strand
Steiner
Stau
Starship
Starlin
Stal
Spotlight
Splash
Spiritual
Soriano
SoftBank
Soa2
Snyder
Sni
Sme
Sleepy
Skull
Skip
Sind
Sin7
Simi
Silicon
Sikav
Shre
Shame
Shall
Shader
Sessions
Sent
Sell
Sec
Seasons
Sears
Schumer
Scarlet
Saving
Savi
Sas
Saric
Sakoas
Saf
Sada
Sabah
SWAT
STU48
STR
STL
SS2
SRI
SOUL
SON
SKYPE
SKE
SIE
SIC
SHOWROOM
SHOWCASE
SFC
SEL
SBR
S400
Ryder
Russ
Rukai
Rubi
Rovio
Rosé
Rosneft
Rosenberg
Ronan
Role
Rojas
Roi
Roh
Robi
Riga
Rho
Rhe
Reza
Revere
Resorts
Renan
Reginald
Reason
Rea
Rau
Rath
Rashid
Rank
Ramsay
Raman
Raise
Rah
Rab
RSI
RNC
RIVER
RF2
R20
Quantum
Q20
Q10B
Pâi
Pái
Pyongyang
Pus
Pun3
Ptnaq
Ps
Provence
Prot
Prim
Prescott
Pren
Position
Poppy
Pool
Ponti
Ponte
Polly
Poll
Politico
Polar
Poker
Poah
Playstation
Plastic
Pipe
Pi5
Physical
Phonetic
Pho5
Phiàn
Phak
Peta
Peri
Perche
Pepe
Pema
Pe5
Paypal
Paw
Patty
Patek
Pastor
Pasta
Passage
Parr
Paras
Pamela
Pall
Paj
Pair
Pag
Padua
PTTG3P
PSO
PRINCESS
PR99
PMIC
PHY
PCS
P99
Owens
Outdoor
Oto
Orwell
Orlinski
Orion
Ord
Optimus
OpenS
Olo
Ohl
Odor
OSS
OSEN
OPM
OFDM
Nursing
Nurse
Nos
Northrop
Nod
Noa
Nixon
Nix
Nirvana
Nineteen
Nigeria
Nida
Nickel
Nexon
Newb
Neue
Netherlands
Neri
Nas
Nant
Nance
Nak
Nac
Nabisco
NYDFS
NSF
NL262
NGOs
NEM
NCS
NCA
NADP
N9
München
Myanmar
Mushroom
Museo
Mura
Munich
Mui
Moâi
Moz
Motel
Moschino
Moni
Monc
Molo
MoMA
Mo3
Miâ
Miyake
Milky
Midlands
Metz
Methyl
Meteor
Mes
Merri
Mene
Member
Mean
McHale
McD
McCann
Mba
Mav
Mauer
Matters
Mato
Mater
Massive
Mask
Mashable
Marvell
Married
Marr
Marketing
Marche
Manufacturing
Mango
Mandela
Malm
Malla
Maka
Maid
Mahi
Maguire
Madeleine
Mackenzie
MSR
MPC
MOP
MOCVD
MMD
MLD
MLC
MG3
MEMS
MARCH
MANGO
MADHOUSE
M42
M35
M1929
Lyft
Ly
Luz
Luv
Lutz
Lunar
Lumpur
Lul
Luce
Lough
Lotte
Loro
Lori
Lodge
Load
Liān
Livingston
Lith
Listen
Limoux
Lights
Levin
Lepto
Leiden
Legends
LeMahieu
Lavrov
Laurie
Launch
Later
Lat8
Larissa
Langer
Landi
Lamborghini
Lagoon
Lag
La7
LSI
LMF
LIHKG
LIA
LF4
LET
Kyoto
Kylie
Kylian
Kwok
Kwa
Kuro
Krishna
Kreis
Krauss
Kramer
Konstantin
Kohl
Kira
Kib
Kháu
Khoan2
Khian
Khar
Keyboard
Keuchel
Ketagalan
Ket
Kenya
Kenley
Kb
Kava
Kau7
Kato
Kaplan
Kao
Kanye
Kang3
Kag
KVM
KTX
KOF
KMC
KIV
KEIKO
KDA
KBS2
Jīn
Jürgen
Jy
Jurlique
Juniper
Jumbo
Jum
Juice
Judith
Jos
Joba
Jes
Janice
Jamm
Jami
Jail
JIN5
JI7
JBJ
J7
Iâⁿ
Iz
Ivanov
Irwin
Irland
Ira
Ioh
Investigation
Internal
Inspector
Inner
Initial
Inina
Ine
Ike
Ik
Ideal
Iap
IWA
ITIS
ISC
INK
INFINITI
IMO
IGM
IET
IDA
ICP
IARC
Hü
Hyun
Hypo
Hya
Hwang
Huî
Huss
Hush
Hurt
Hungary
Huff
Ht
HouhN
HotDog
Hossein
Hol
Hoanya
Hesse
Hens
Helios
Heer
Hawkes
Haw
Hani
Hala
Haji
Haguenau
Hagen
Hacker
Haa
HYUNDAI
HXD1
HUN
HUA
HU7
HDTV
HAI
H6N1
Guzman
Gupta
Gund
Gud
Guaido
Grund
Grow
Groupe
Groove
Gree
Graf
Gonzales
Gogh
Goat8
Goal
Glas
Gilchrist
Ghebreyesus
Gere
Geoff
Gbit
Gazette
Gat
Gallo
Galileo
Gackt
GYM
GTA
GOMAJI
GOD
GIORGIO
GIN
GEL
GCHQ
GAGA
G41
G22
G15
Funny
Fruit
Frog
Fortress
Forrest
Foll
Floor
Flint
Flea
Finger
Fighters
Fifty
Fielder
Fiction
Ferri
Ferreira
Feng
Feat
Faust
Fasold
FamilyMart
FUJI
FTIsland
FSH
FRP
FROM
FRIDAYS
FNN
FLOW
FL8
FIR
FILM
FIDH
FE0
FAST
FANCL
FAC
F27
Eyed
Excalibur
Everyone
Evers
Etsuko
Eternal
Esprit
Espresso
Error
Ernesto
Erd
Erasmus
Encyclopedia
Elu
Else
Element
Ekaterina
Edmond
Edin
Eck
EVER
EVANGELION
ESI
EPUB
EMV
EMC
EFI
ED7
EBS
EBC
E200
E11
E0
Dyna
Dw
Dut
Duch
Ds
DotA
Dori
Dono
Doi
Dobr
DivX
Distri
Dist
Diss
DisplayPort
Diplomat
Diploma
Dina
Dijon
Dijk
Dietrich
Devi
Dep
Denver
Deloitte
Della
Debit
Davi
Darby
DSG
DNP
DMC
DINP
DELL
DD13
DARPHIN
DACA
Cuz
Criminal
Crater
Cran
Counterpoint
Cot
Correa
Corpus
Cori
Copenhagen
Copa
Contreras
Contract
Connie
Compute
Como
Commonwealth
Comedy
Colour
Collison
Collegiate
Coke
Cobra
Coalition
CoA
ClO
Citroën
Circulation
Cip
Cinna
Cincinnati
Ciao
Chocolat
Chira
Chip8
Chio3
Chhàu
Chew
Chevron
Chevalier
Chas
Charm
Chaos
Chand
Chac
Chab
Cg
Cerv
Cerro
Cent
Cen
Cava
Catalan
Casta
Cassius
Carra
Carolyn
Cargo
Carcassonne
Cao
Cana
Cahors
CULV
CTC
CSV
CROSS
CRE
COX
CONCERT
CNA
CMM
CM11
CLANNAD
CHIT8
CHHIT
CHCOO
CFO
CF3
CET
CEN
CDU
CDF
CBI
CATCHPLAY
CANCER
C0
Bī
Bü
Butt
Burg
Buk
Bryn
Bres
Bowie
Boulay
Bottle
Bott
Bop
Boll
Bold
Bogdanovic
Bog
Blackwell
Blackstone
Blackmon
Bl
Birch
Bilibili
Betamax
Bertrand
Bers
Berryz
Berkshire
Benton
Bend
Bedford
Bcingan
Batavia
Basili
Bana
Baltimore
Bald
Bakery
Baccarat
BVI
BUS
BLS
BAT
B612
Azarenka
Aux
Autumn
Aut
Auri
Augustin
Augusta
Aube
Atmos
Ate
Assange
Ascend
Arroyo
Arna
Arkansas
Aristo
Arissa
Aris
Archibald
Arabic
Arabian
Antonius
Amuse
Amir
Amin
Amigo
Amherst
Amer
Amal
Alternative
Also
Alli
AllMusic
Alisa
Aleksandr
Alcatel
Aja
Aix
Aggie
Aeg
Absolute
Abra
Aber
Abdu
Abby
AUS
ASV
ASH
ASCO
ARK
ARI
AOR
AOC
ALD
ALBION
AGS
ACL
ABI
A17
99m
8X
8945
8786
8640
8121
7M
7980
7777
737MAX
6X
6B
6740
65000
6282
6274
6143
600CC
6008
5X
5475
5440
5390
5220
4n
4c
4T
4994
4965
4932
4850
4640
4344
4340
4306
4301
4170
4123
40G
4096
4080
4043
4028
4010
400rpm
4001
3R
3ASV
3890
3875
3697
3688
3666
3665
3645
3615
3564
3532
3501
3483
3391
3355
3323
3270
3229
3189
3123
3087
3086
3057
3056
3048
3025
3006
2ppm
2P
2GHz
2B3
2953
2933
2923
2917
29000
2897
2836
2822
2805
2776
2761
2760
2720
2711
26K
2685
2675
2640
2608
2607
2558
2527
250CC
2509
2503
2425
2420
2404
2309
2251
2243
2236
2235
2213
2182
2158
2145
2142
2123
2119
2113
20m
20k
20K
2096
2057
200km
1GW
15G
14W
14159
11g
11492
10900000
1080P
10700007
10700006
10700005
10700002
1030001
10300007
1020001
1010000
0900
0651
0230
0180
0080
##Ya
##YM
##XT
##Win
##Wa
##USE
##UND
##Th
##TAR
##SK
##RL
##RG
##Pu
##Play
##PORT
##PF
##Op
##ORT
##Ne
##NTU
##MD
##KG
##JM
##ITA
##Hi
##HP
##HM
##GRA
##Fl
##En
##EW
##DEN
##DAY
##Card
##Cap
##Bike
##Bea
##Bank
##BM
##AGE
##7A
##715
##710
##6A
##678
##651
##5A
##455
##4000
##333
##327
##310
##302
##280
##256
##220
##215
##2018
##1B
##198
##163
##161
##127
##118
##114
##071
##022
##018
##013
##007
##호
##한
##상
##ヴ
##レス
##リオ
##ュー
##ヤー
##ペ
##フィ
##ネット
##ナー
##トー
##チン
##ザー
##サイ
##クロ
##ゅう
##どう
##ぞ
##しん
##ごう
##ことが
##げん
##きゅう
##かく
##おり
##いち
##ぃ
##あん
##ი
##ط
##ج
##ל
##ә
##ъ
##ур
##по
##ный
##нов
##мо
##ко
##ки
##за
##же
##бо
##Н
##К
##χ
##έ
##ǔ
##ǐ
##ĩ
##āi
##ýt
##ül
##ück
##öm
##ôn
##ñe
##ét
##éro
##éra
##âi
##ác
##½
##zko
##zet
##zani
##yro
##yre
##yes
##wk
##wie
##wha
##wall
##wai
##vig
##vation
##vang
##uv
##urn
##ures
##upt
##umo
##umi
##uman
##ulat
##udi
##uce
##uat
##tude
##tty
##tronic
##tree
##tonin
##tomi
##tio
##tini
##tier
##tian
##thian
##than
##tb
##sv
##strom
##stes
##sso
##sser
##spr
##spe
##soa
##sme
##shot
##sea
##sand
##s7
##rud
##rsk
##rot
##ront
##roa
##riya
##rise
##rial
##reak
##rc
##raph
##rano
##rami
##rame
##rado
##ract
##qvist
##quez
##quen
##put
##pti
##pr
##pos
##poi
##plo
##plex
##place
##pell
##pag
##oye
##oxy
##osp
##opsis
##ops
##ophon
##olis
##oj
##ography
##nz
##nson
##nok
##nius
##ng3
##nf
##nee
##nate
##nai
##nagar
##mz
##moˇ
##moi
##mma
##minat
##mill
##mea
##mae
##lur
##lore
##logist
##lles
##lif
##lid
##lex
##lef
##ldo
##lc
##lass
##lant
##lade
##kong2
##kok
##kla
##kill
##kele
##jour
##ières
##ival
##itic
##ipa
##ining
##iner
##imal
##ild
##igh
##iger
##ift
##icus
##huk
##huh
##hog
##hod
##hir
##hine
##hannel
##hala
##hae
##hPa
##gul
##gri
##gra
##glo
##git
##gis
##gic
##gger
##gee
##flow
##ffi
##festival
##fat
##fare
##fact
##evich
##eut
##etan
##eru
##erty
##erman
##eres
##eq
##ept
##enburg
##eis
##eid
##eia
##ego
##edia
##eak
##e1
##dun
##dot
##dil
##dho
##det
##deo
##dana
##dag
##cz
##cur
##cum
##ctic
##cript
##court
##coin
##cn
##cli
##cian
##chus
##chio
##chau
##chat
##cade
##bund
##bt
##bru
##bric
##brand
##bow
##bla
##bike
##bau
##bala
##azi
##awi
##away
##atum
##atu
##atis
##ares
##anne
##amer
##ales
##akh
##aho
##agi
##aca
##aby
𥺦
𢼌
ｉ
ＷＥＦ
ＵＢＳ
ＮＴ
ＮＡ
ＭＥＲＳ
ＫＯ
ＨＩＶ
ＦＡＡ
ＥＴＦ
ＥＳＭ
ＣＩ
ＣＣＩ
ＢＢ
ＡＤＳＬ
ＡＤ
５０
３Ｇ
２６
＇
ﰈ
淋
離
劉
列
略
랑
齕
鰜
鮁
魽
魃
鬅
驎
騃
顙
隹
険
闗
鏊
錏
酇
鄩
遡
軽
踭
趿
赢
贒
讌
謡
誑
誃
覚
蠆
螆
蝛
菻
荑
苺
臯
脽
脧
脘
肭
聴
翾
羗
约
緑
綎
紬
糌
箎
筶
硦
硜
睚
畇
璡
琁
牁
熅
瀠
瀙
澁
潿
潽
淥
淏
涷
浿
毖
櫝
榤
椀
桫
柾
柰
晙
昞
昝
昃
旳
攥
摏
搕
揸
怗
忉
廙
廌
嶢
嵓
寃
孥
孌
娞
埏
埇
囃
嚗
嚅
噏
嗖
呲
呉
収
匁
処
僰
偍
侢
伷
亷
パン
ネコ
ドリーミング
ゴー
クロ
イン
より
めて
ひの
にし
けい
あなた
⑸
‐
ར
อ
ว
ช
ر
د
ب
ф
г
ξ
ʦa
ʁ
Č
Ø
ÎN
Íng
ziung
ziedˋ
ziamˇ
zhogˋ
zhinˆ
zenˊ
zauˋ
youth
yl
yard
wurde
wow
wolf
wit
whom
wheel
wee
watchOS
wake
voˊ
vos
vor
visitors
visa
vip
vie
venture
vaˊ
variation
valve
val
vaiˊ
v10
uān
ug
ud
tɕ
tēnn
täu
types
tyc
twice
twA
tuàn
tugˋ
tsám
tsuī
tsuānn
tsuân
tsunami
tsu7
tsu5
tsiá
tshānn
tshînn
transi
tot
tioh2
tihit7
thus
thenn
that4
tests
terrible
tendency
temperature
sýt
sê
sys
symp
swi
sushi
supposed
supercell
summit
suiN
suggested
suck
subs
suaˋ
struct
stratum
steel
stack
sport
spon
spoke
span
southern
soiˊ
soh8
soap
soaihN8
snail
skills
siunn3
siooˆ
sina
sienˊ
shoiˋ
shaˋ
sensation
semˊ
selection
seek
sector
sang55
sandwich
sala
sail
sab5
ruled
rocket
rhongˇ
rhiung
rhiaˇ
rhaˊ
repair
removed
regard
recognize
receive
ras
rally
rad
rac
quoted
qioˊ
qa
pýt
puë
purchase
pull
professor
produce
probably
pres
practices
pr
poster
pongˇ
politicians
poiˇ
pocket
poann5
pink
pik
phänn
phiu
phinn3
phil
phiang7
phiah8
permanent
performed
pel
paying
passport
panic
p4
ox
option
officers
observed
oaiN7
nō
nē
nì
ntv7
nou5
nos
niˊ
niconico
ngogˋ
ngog
ngioˊ
nginˇsaˇ
ngiamˊ
neck
nations
nasal
n54
myfone
muh
mont
ministry
ming
metro
mel
medium
mechanism
mask
marker
marked
mang55
lyrics
lung5
luck
listen
limit
lifestyle
liag
lia55
lh
leuˊ
leuco
lebˋ
leaving
le55
lar
lane
kânn
koàiⁿ
kono
kle
kiãt
kiunˇ
kiq
kiongˇ
kinn5
kiki
khā
khuìnn
khuê
khua
khou5
khoaiN5
khiung
khinn
khin2
khiak
khehN8
khao
kei
kau1
kara
kapu
kana
jur
jiãt
jit5
jit4
jiangˊ
jewelry
jazz
iûnn
involved
introduced
intel
inspiration
industrial
income
imper
ieuˇ
iedˋ
identical
iTV
iMo
iBook
hóo
hânn
hàun
hunting
hub
huai
hormone
hopes
hood
hodˊ
hiánn
hiooh
hinˋ
highlight
hiabˋ
hiaN7
hia3
heaven
headed
hate
hanˆ
hann
gìn
gám
gy
guys
gre
grade
govern
goodbye
giga
giant
gg
genome
geng3
genetic
ge3
garden
gala
franchise
fogˋ
fm
flower
fit
findings
fighter
fet
favor
false
falls
faith
fail
faces
extremely
extended
ext3
except
evil
evening
equi
equality
entire
eg
eX
eIF
dy
dw
driven
downtown
doh
divorce
dish
despite
dece
d4
cuˋ
cru
cro
criticism
conn
conduct
comparison
commitment
comm
colonial
claimed
claim
ciuˇ
cities
chóa
chusha
churitsu
chug
chic
chia7
chhū
chhiūn
chhiàu
chhiong2
chhiam5
chest
ch3
cg
cer
caˆ
causes
captain
bò
burst
bur
bugˋ
bs
bro
brief
bodies
boc
bng5
bn
bite
binˊ
bicycle
bian5
becoming
bake
award
ava
att
ate
assist
asking
arti
arg
apps
appears
appear
appeal
apm
amp
amb
ala
aga
affect
achieve
acc
ability
Zor
Zobrist
Ziv
Zeta
Zer
ZenBook
Zel
Zee
Zai
ZU
ZAO
Yue
Yoshiki
Yoho
Yeo
Yaz
Yaya
Yaoi
Yankees
Yamato
Yadier
YPG
YB
Y5
Xo
Xerox
XZ2
XXL
XXII
XVIII
XM2
XK
XIX
XG
X8
Worlds
Words
Woody
Witness
Wired
Willson
Willian
Widodo
Which
Wheat
Wham
Welle
Wees
Wed
Webber
WeTV
Warrior
Walters
Waka
Wagi
WZ
WRT
WRO
WPI
WPD
WITH
WINS
WEI
WCS
WANNA
W12
Vox
Vizio
Viv
ViuTVsix
Vitry
Visi
Villanueva
Vertrecht
Vers
Veri
Vei
Variable
Vans
Vani
Vag
Vad
VLAN
VICTOR
VH1
VEN
VD
V40
V15
Utux
Uta
Ura
Ups
Universidad
Understanding
Underground
Uichi3
Udo
UUPON
UPF
UPC
UNC
UCSD
Tyreke
Tut8
Tusk
Tum
Tui2
Tuc
Tube
Tua
Tshu
Tsarnaev
Tripoli
Tribute
Trends
Tp
Tote
Toshi
Tos
Tomi
Tomb
Tiⁿ
Tisci
Tinto
Timeline
Tiki
Tien
Tiau7
TiN
Thoan
Thibodeau
Thi2
Ther
Theodulph
Them
Thar
Tempe
Technica
Techni
Tb
Taro
Tari
Tang2
Tamar
Talking
Tailor
Tahir
Taa
TVN
TTT
TSH
TRT
TPS
TOEFL
TNF
TIPS
THIS
TGo
TEX
TEDx
TCM
TBL
TBF
TANK
T18
Sû
SystemVerilog
Sys
Sybase
Svi
Sven
Suzanne
Sushi
Superior
Superga
Sumi
Sulli
Sukh
Such
Success
Stuff
Strop
Strom
Stro
Stranger
Straits
Str
Stockton
Sti
Stag
Stadt
Spra
Spo
Spice
Spectro
Speak
Sparta
Spansion
Soán
Sox
Souza
Soria
Sora
Sookie
Somerset
Solt
SolarCity
Sola
Soan3
Slu
Slayer
Skripal
Size
Sini
Sindhu
Sina
Sims
Siena
Siegel
Sick
Sic
Siberia
Siam
Shumpert
Shoes
Shoe
Shiva
Sheriff
Sheffield
Shape
Shao
Shant
Sew
Serra
Seneca
Send
Sema
Seconds
Seal
Scripture
Scri
Scotia
Schwarber
Schumacher
Scene
Sav
Saussure
Saud
Saro
Sandi
Samba
Salle
Salam
Saki
SaitoMasaki
Sail
Sacred
Sabine
SYM
SWIFT
STYLE
STE
STAFF
SSCI
SPSS
SPR
SPF50
SPDR
SPC
SOUND
SOL
SMRT
SMILE
SLF
SIĀ
SER
SEP
SENG3
SEIKO
SED
SCHOOL
SCDMA
SBI
SAML
SAE
S30
Rugby
Rud
Rub
Royale
Rowling
Rounds
Rougned
Rosie
Romero
Rohan
Rodgers
Rockefeller
Roc
Rios
Rima
Rim
Rib
Replay
Rent
Remington
Remi
Relief
Rek
Reilly
Rei
Reese
Rapids
Raphael
Rang
Ramsey
Raffles
Radiohead
ROSE
RF3
REP
REL
RAS
RAN
RAD
R32
Quir
Quechua
Quattroporte
Quattro
QI
Q15
Pér
Puy
Purpose
Purple
Pui
Puff
Ptero
Psychological
Psy
Promise
Prevention
Premiere
Pow
Poul
PostgreSQL
Possession
Portland
Porte
Popcorn
Pontarlier
Pola
Poi
Poc
Plo
Pliage
Pli
Plata
Pio
Pilati
Pik
Pháng
Physics
Phyllis
Photos
Pharrell
Pharma
Perth
Person
Pep
Penta
Peninsula
Penang
Peekaboo
Pater
Pasteur
Pars
Panther
Panta
Pann
Pand
Pan7
Palio
Palestinian
Paleo
PUMP
PST
PPL
PHO
PGM
P7
P450
P19
P15
OĀ
Oyster
Overlord
Outlander
Osi
Osh
Ort
Ors
Orr
Organisation
Ore
Oppo
Och
Oa3
OW
ONLY
OIU
OHV
Nye
Null
Nt
Noor
Noo
Nom
Nil
Nikko
Nights
Niger
Niels
Nieder
Nica
Newt
Neway
Nevada
Nem
Neg
Naz
Nautica
Native
Nang
Nagar
NPR
NIST
NIH
NEVER
NDM
NCP
NAN
NAM
N64
Mystic
Myst
Mya
Mustang
Musik
Mozart
Movies
Moser
Moscow
Mortagne
Moritz
Morg
Moov
Moojin
Monts
Monti
Montessori
Monfils
Moi
Mock
Missing
Mish
Mio
Mighty
Midway
MicroSD
Mi7
Mercado
Merc
Ment
Meng
Mena
Mele
Melchior
Mejia
Meier
Megas
McCa
Mazda3
Maximilian
Maw
Mauricio
Mats
Mathias
Mathews
Mathematics
Mast
Martine
Marsh
Mai7
Maga
Madre
Mada
Macquarie
MacDonald
MTS
MT6
MSC
MRO
MPP
MOF
MITSUBISHI
MIKIMOTO
MED
MECO
MCTS
MCS
MAT
M62
M50
M40
Luxgen
Lutheran
Lust
Lumileds
Lukas
Lufthansa
Luch
Louisa
Lop
Loft
Ll
Lipo
Limelight
Lig
Liao
Lexical
Leve
Less
Lemp
Lecture
Lec
Leah
Lazar
Laver
Lava
Lass
Langres
Langon
Lafayette
Lack
Labour
LUNASOL
LUCKY
LUC
LTP
LK
LJN
LHA
LBJ
LANG5
LANC
Kòe
Kwe
Kw
Ks
Kristin
Koâⁿ
Kosa
KoaiN
Knot
Kna
Kli
Kiwi
Kiri
Kipling
Kinne
Kilo
Killa
Kiel
Kiau7
Kiat8
Khǹg
Khàm
Khui3
KhoaN
Khian5
Khai2
Kha3
Kha2
Kgm
Kensington
Kendall
Kelley
Ke5
Kazan
Kari
Karencici
Karan
Kall
Kadai
KONAMI
KOA
KML
KIS
KIN
KIEHL
KAU3
KA4
Juul
Juncker
Jul
Jude
Jub
Josephine
Joaillerie
Ji2
Jere
Jaw
Javad
Jasmine
Janine
Jaco
JOJO
JBL
JAMA
J0
Iva
IuN
Issey
Iss
Irvine
Iri
Intellectual
Inst
Ingress
Imm
Imam
Im5
Illustrated
Ilha
Ikea
Ifo
ITEX
ISE
IRE
ILS
IGF
IFC
IESF
ICOCA
IAR
IAC
Hāng
Hyb
Hur
Humanities
Hui3
Hui2
Hubb
Hos
Hor
Hook
Hockey
Hinch
Highlight
Highland
Hibbert
Henrik
Hayley
Havergal
Haus
Haupt
Hati
Hash
Harp
HappyCash
Hamad
Halifax
Haka
Haiti
Hadi
HW
HUG
HTH
HIS
HEPA
HEL
HEA
HCl
HCE
Gymnasium
Guthrie
Guri
Guns
Gula
Guest
Gt
Griezmann
Gret
Gremlin
Greenwich
Graves
Grad
Gong
Goldberg
Goes
Gods
Glover
Giâ
Gingrich
Gibbons
GfK
Gerry
Gera
Geological
Genius
Gb
Gaul
Garn
Gao
GameSpy
Gaia
Gabrielle
Gabi
GTC
GPIF
GP2
GLOBAL
GIMP
GIAN
GG1
GENTLEMAN
GEAR
GAU
GATT
Fultz
Frequency
Francesca
Franc
Frag
Fol
Flaherty
Fiore
FinTech
Filter
Feu
Fern
Fc
Favors
Farra
Fala
Faker
Fak
Fairy
Fah
Fade
Fabri
FN3
FMEA
FM9
FLI
FLASH
FAX
FAT32
FACTORY
F4F
F16V
F12
F0
Exxon
Experiment
Exmor
Everett
Ether
Este
Esperanto
Esper
Ernie
Enemy
Emirates
Emilia
Ema
Ely
Eliza
Edi
Econ
Eber
EY
EUR
ESG
ERJ
EPS3
EMO
EMB
EF58
EEZ
ECCO
Dusty
Dumas
Dud
Duchess
Dreyfus
Dop
Doo
Doh
Dja
Disneyland
Dish
Discover
Dios
Dinh
Dilma
Dies
Dh
Dess
Despaigne
Deo
Delphi
Delmon
Dela
Decision
DeMarre
Dat
Dandy
DailyMail
DVI
DSS
DOWN
DIVA
DIMM
DESIGN
DER
D32
D31
D24
Cygnus
Currie
Curi
Cure
Cunningham
Cuc
Crytek
Crowley
Cortana
Corne
Cooperation
Contra
Cons
Connell
Combi
Colonial
Collier
Coal
Coa
Clé
Cluster
Cloud9
Clos
Civilization
Cic
Châ
Chom
Chokusetsu
Choc
Chiūⁿ
Chim3
Chico
Chia5
ChiN2
Chhē
Chhám
Chhiò
ChhioN3
Chhio
Chessman
Cheese
Cheek
Chari
Chak
Chairman
Ceng
Cellulose
Caterpillar
Catalonia
Cata
Castell
Cassa
Caruso
Carrie
Caron
Caro
Carm
Carlton
Caris
Calli
Calibre
Calderon
CUZ
CTO
CT2
CST
CROW
CRJ
COUNTDOWN
COT
CLE
CHRIST
CHINESE
CHHI
CHHENG
CHC
CECA
CDE
CCFL
CARD
CA1
Béziers
Bynum
Busch
Buckle
Buch
Bubble
Brune
Bru
Browser
Browning
Britt
Britannia
Bring
Brigitte
Brie
Brenda
Brandt
Boutique
Bored
Boozer
Boots
Bonjour
Bomis
Bois
Boi
Blancpain
Biō
Biāu
BioWare
Biau2
Bh
Bey
Between
Bethlehem
Besançon
Bernd
Berm
Beri
Beo
Beno
Benintendi
Beng
Belinda
Belgian
Beaux
Bea
Batu
Battery
Barrow
Barron
Bare
Barco
Banksy
Ballet
Bail
Baghdadi
BSP
BRAND
BPP
BOE
BLOOD
BLA
BIM
BGA
BEAUTY
BCS
BCBG
BBoom
BASF
BART
BAN
BAD
BACK
B19
Auguste
Auckland
Au5
Atti
Attention
Atta
Ati
Assault
Ashby
Arv
Arta
Arp
Aro
Arno
Arn
Arma
Arctic
Arco
Arabia
Ank
Angus
Angle
Angelea
Andrey
Amazona
Amand
Alstom
Alp
Alleg
AllStar
Alis
Alexandr
Alco
Albums
Ake
Ahn
Agricultural
Agen
Agar
Adrien
Adr
Adl
Address
Additional
Addict
Actor
Ack
Acid
Achebe
Academic
Abo
Abloh
Abba
AY
AWD
AVEX
ATO
AT2
AQUA
AIIB
AE86
ADB
ACTION
AAM
A43
A14
9k
9945
9150
8th
8mm
8L
8F
8C
8926
8350
8119
8080
8050
800m
7th
7km
7k
7D
70K
6x
6D
6990
6950
6650
6550
62mm
6214
6166
6145
60K
5B
5269
5212
5050
5042
5040
500c
4s
4km
4ever
4MATIC
4H
4943
4763
4744
4680
4540
4468
4444
4396
4330
4205
4162
4141
4133
4115
4114
4077
4066
4052
4033
4029
400mm
400cc
3x
3N
3F
3DO
3990
3985
3947
3944
3927
3856
3813
3708
3670
3646
3635
360px
3605
3587
3534
3504
3429
3393
3376
3320
3263
3195
3164
3103
30g
3051
3043
3016
3012
2K1
2982
2967
2935
2859
2858
2831
2830
2826
27K
2796
2789
2743
2709
26561064
2656
2605
2583
2580
2575
2556
2541
2535
2528
2506
2505
2495
2479
2470
2426
2381
2370
2355
2346
2288
2268
2263
2257
2254
2253
2248
2241
2229
2217
2211
2202
2195
2194
2174
2165
2136
2135
2124
2102
2090
2071
2052
2039
1x
1X
1N
1E73
1B6
1B5
1990s
16k
16S
16F
14B
130J
12800
12500
123456789
120km
10cm
10C
10800028
10800006
10800001
10500008
10500004
10300009
10100
100mm
100MW
0990
0980
0937
0930
0912
0911
0700
0640
0410
0260
0221
0161
00E
0003
##ZZ
##Xe
##XL
##Works
##Wh
##Web
##WO
##Vo
##Ve
##VT
##V1
##UNT
##UG
##Tube
##Times
##TD
##Sun
##Sh
##SP
##SHO
##SF
##RF
##PN
##PER
##PB
##OX
##OV
##ORA
##OF
##OBA
##M2
##LU
##LING
##LER
##Ko
##Kit
##Kg
##JS
##IGHT
##IES
##ICE
##HH
##Gu
##GHz
##Fu
##FFF3
##F2
##Eye
##Ed
##END
##Design
##Cs
##CY
##CL
##CHE
##CHA
##CF
##CB
##CAT
##BUS
##BL
##B2
##ARA
##920
##880
##830
##810
##802
##7i
##668
##630
##616
##612
##5e
##536
##512
##485
##474
##463
##456
##450
##3o
##365
##364
##317
##312
##311
##2B
##225
##219
##212
##2014
##1S
##1E
##152
##146
##131
##130
##126
##1100
##009
##005
##0001
##00000
##ＴＣ
##ＲＣ
##ＰＩ
##회
##준
##비
##ーク
##ワイ
##ルー
##ョ
##モン
##ベン
##ベル
##バイ
##ッチ
##ゾ
##ジェ
##サービスエリア
##サー
##アイ
##んだ
##より
##ゅ
##まん
##ぶん
##のは
##ぬ
##という
##てき
##だいがく
##くじ
##きょう
##かな
##あり
##ớ
##ị
##ว
##ف
##ש
##ד
##א
##ян
##ого
##кин
##ил
##ес
##ен
##ал
##ων
##ερ
##ʊ
##ɛʁ
##ūn
##ča
##ăn
##òe
##ís
##ík
##éon
##ène
##år
##är
##áu
##ÓNG
##zle
##zione
##zie
##zhan
##zha
##zell
##yst
##ync
##won
##wig
##wic
##wed
##ways
##wana
##vine
##vier
##vara
##vad
##v3
##uve
##uring
##unt
##uno
##ungs
##ulos
##ulan
##uis
##ugu
##ugo
##ught
##udin
##uct
##ttle
##tting
##trop
##tops
##tn
##titi
##times
##thu
##thau
##thal
##test
##tari
##tain
##tab
##sé
##sure
##suchus
##stica
##stat
##ssed
##smith
##sli
##slav
##sine
##sik
##sible
##shes
##sbe
##sba
##sav
##rts
##rovi
##ror
##ropo
##rog
##rli
##rite
##rison
##ript
##rica
##rib
##reu
##rest
##rene
##redi
##rect
##ream
##rci
##rba
##rail
##rage
##rach
##quit
##quer
##quent
##ql
##pura
##ptr
##ptic
##pter
##psi
##print
##pring
##ppa
##power
##ports
##pil
##pid
##phin
##phere
##phal
##pf
##pek
##pea
##pac
##p8
##owitz
##ough
##otr
##osu
##opo
##opi
##ophy
##oper
##oos
##oop
##onen
##olar
##oha
##ogical
##odor
##odin
##obe
##nzo
##nze
##nya
##nsk
##nsa
##note
##nnes
##nl
##niti
##nio
##nier
##ng5
##nell
##nb
##nath
##nard
##mt
##mpo
##mov
##mouth
##mone
##mobile
##mf
##metal
##meri
##mc
##maru
##maa
##lve
##lv
##lung
##lund
##lui
##lova
##llar
##litz
##lg
##lens
##lec
##layer
##laus
##lake
##lach
##laa
##kó
##kut
##korn
##kor
##kom
##kir
##kei
##kara
##jing
##jima
##jian
##jee
##jam
##jad
##jack
##ić
##iwa
##ité
##ister
##isan
##ipi
##iot
##iop
##iona
##ija
##igan
##iev
##iere
##iell
##idine
##ict
##ici
##ibo
##iB
##hz
##http
##hood
##hio
##heng
##helm
##hb
##harm
##hant
##hair
##gˇ
##gus
##guer
##gua
##gov
##goo
##goni
##gold
##gna
##gf
##gb
##gari
##gami
##four
##fia
##ffle
##fee
##fas
##exual
##exi
##ewa
##evo
##etter
##etr
##esse
##eso
##erus
##erni
##erin
##epi
##epe
##enz
##enst
##enho
##ener
##enda
##eller
##elia
##eke
##ege
##eek
##duk
##dru
##dha
##dac
##ctin
##croft
##cro
##coi
##cience
##cid
##chow
##chor
##chiah
##chenko
##chei
##chak
##cera
##cchi
##byte
##buster
##bread
##bourg
##borough
##boi
##bog
##boe
##boat
##biz
##bine
##bec
##bari
##b2
##auer
##ats
##athi
##atha
##aster
##arre
##arra
##ards
##apa
##ange
##ams
##aman
##aly
##alli
##ahe
##agh
##afe
##aer
##adr
##aden
##abe
##aS
##a5
𪗆
𦷪
𥺼
ＴＭＣ
ＰＩ
ＭＲＴ
ＭＩ
ＬＶ
ＩＳＳ
ＩＳＩＬ
ＨＤ
Ｇ８
ＥＣ
ＣＭＳ
３０
２０１
１５
대
나
鿫
齜
鼷
麐
鶆
鰳
鰣
鮐
魈
駑
饜
饃
頠
韾
靭
鋭
鉔
躙
譞
虺
薾
薕
蒍
菉
茀
膭
脬
聵
网
罃
缝
纔
縠
緃
絝
紞
糢
籓
笒
竪
磣
碻
碱
瞅
癜
瘚
畐
璆
瑉
狓
犽
煅
瀦
洁
櫉
櫈
楄
栞
旄
撦
抸
扠
扆
悪
悛
忳
嵛
崞
岢
屭
寯
宝
宁
嫋
姘
夲
塏
堙
堘
圉
唃
呪
刧
儎
侘
佋
乗
䉑
㸰
ロー
ヘ
ブラ
ファ
ツリヌグヒ
チー
タイヤ
エリ
ろ
よし
めの
ふく
ば
にあ
なん
なる
とは
での
たち
ただ
せん
される
さくら
いま
あま
〩
〨
〧
〦
〢
པ
দ
र
ق
ع
ש
ч
пр
Х
Ра
По
Μ
Β
ɕ
Ōe
ét
Évreux
Ä
zur
ziogˋ
zinˇ
ziaˇ
zhunˇ
zheu
zhab
zag
zabˋ
yin
xml
xioˇ
xidˋ
xeno
xDrive
winner
weekend
weak
wash
warn
vunˋ
vowel
voters
volume
videos
uve
unre
ungian
tāⁿ
tôe
tutu
tunˇ
tunnel
tsóo
tsuán
tsun5
tsui2
tsuah
tsióng
tsiq
tshuànn
tshue
tshuan
tshiòng
tshiám
tshiàu
tshiang
trial
traveler
transport
trait
tournament
tiu3
tihia7
tid
throw
thim
the1
teraphim
teachers
teach
tann2
talent
taipanga
ta55
sı
swimming
suìnn
suân
suàn
successful
strategy
sticker
stem
stadium
spy
speaking
sous
sop
soccer
slogan
slo
siü
siúnn
sink
singing
sides
siangˇ
showing
shooting
shioˆ
shia
shan
serial
separation
sei
seeking
secondary
screening
screen
scored
sco
scan
satellite
sap8
sample
sam7
royal
rob
rhongˊ
rhieˇ
rhiabˋ
represent
regret
reflex
recording
rece
rea
radical
quo
qualified
qiuˇ
qied
pôe
puànn
puts
pur
punˋ
pulse
provides
provided
provide
protocol
protests
pronoun
promotion
programming
professional
prize
prev
premier
prefect
predict
praise
prairie
polo
poetic
plug
plu
pilot
phü
phông
phui2
phuah
photos
phiánn
phinn7
phaN
perform
penguin
penalty
pchome
patch
partial
pangˊ
panel
pala
pal
opening
onto
onset
ones
officer
od
ntnu
np
noovy
nonˇ
noa
no3
nis
nin
nicotine
ngiaˋ
ngiauˊ
ngauˊ
ngaih8
neuro
necessary
nb
n7
mˋ
mí
muˊ
mut
mtDNA
moral
mom
miu
mirror
mih88
mih4
mienˊ
miaˋ
merry
mer
melano
mc
massacre
mala
mahanru
m1
lùn
lum
lt
lock
lm
liˆ
liõh
listed
lift
lex
leap
lb
largely
laq
lands
kíⁿ
k³
kuo
kunˆ
kop8
koa5
knock
kiàu
kitty
kiet
kiadˋ
khòai
khoàiⁿ
khou1
khoai
khip8
khia3
khaⁿ
kernel
keen
kami
kV
jiongˊ
jiau
jQuery
iāⁿ
iäng
ita
it7
ira
involving
interested
interaction
ino
industry
inde
includeonly
in5
immediately
imgur
ig
ideal
ich
iauˊ
iag
iTaiwan
iSt
iR
iQ
hīnn
höng
hö
hôan
hàng
huàn
hung
hundred
huinn
horizon
hoping
hooh
honestbee
hits
hint
hiann5
hiahN8
heritage
heads
hay
hao
handed
hala
hal
haksys
haiˇ
hN
gè
guest
grid
grass
graph
grammar
goals
glottal
girlfriend
gimˊer
gem
gc
gaiˆ
ga7
funds
functional
fuiˇ
fru
friendly
fox
flyingV
flowers
fighting
fibr
fee
famˊ
fab
explo
explain
experiment
experienced
expensive
expect
evi
ethnic
especially
esi
equivalent
enemy
enable
emb
ele
ehN
ebay
eT
eDP
e16
dub
dt
drum
document
diss
dispute
diagram
devil
detect
destroy
desire
dent
degree
degli
deg
decline
decided
dash
dans
dahan
customers
customer
crocodile
critical
criminal
crash
coverage
coup
corona
controlled
continued
conse
cons
confirmed
concept
component
commission
combined
coin
clip
cle
ciongˋ
châiⁿ
chor
choing
choe2
chips
chinn3
chhûn
chhoai
chhiu3
chhioN3
chha3
chemistry
chao
changed
champion
carr
captured
candidate
buãh
busy
burning
bosshu
borough
bore
bor
booˊ
bocho
blame
bi31
bel
bek
beer
beenˆ
bbienˋ
bbanˋ
basis
bab
ax
aware
ave
auction
attorney
atr
atom
ato
atmosphere
assembly
asalih
artist
arrest
apu
apt
approved
apology
ann
ambiguity
alive
algorithm
alb
alan
agr
aes
aero
adv
adj
acu
acquis
acids
abo
Zurich
Zun
Zs
Zhi
Zheng
Zhe
Zeng
Zei
Zarif
Zamb
Zam
ZS
ZO
Z33
Yuka
Yoo
Yokohama
Yif
Yet
Yates
Yat
Yasu
Yai
Yabu
YUN
YN
YMO
Xixo
Xcode
XXVI
Writer
Write
Wor
Wis
Willi
Wille
Wilkins
Whitman
Weight
Wea
Warwick
Wally
Wakefield
Wak
WX
WV
WK
WILL
WCG
WAP
WALKER
W7
Vy
VuVu
Vs
Volodymyr
Voit
Vlad
Violin
Vik
Vida
Veni
Valence
Vajiralongkorn
VPS
VPC
VLSI
VIVA
Ustream
Urs
Universität
Und
Ulu
Ulm
Ub
UTS
UTC6
UTA
USN
UPI
UNS
UNHCR
UNDER
UMP
UG
UAC
U9
TwinPower
Tweed
Tunnel
Tuna
Tsìng
Tshit
Tsang
TrueType
Tris
Trig
Trib
Trian
Tres
Treat
Trauma
Trash
Transform
Transa
Toàn
Toyo
Towers
Tours
Tou2
Tora
Toon
Toba
Tiun
Tissot
Tiri
Tim5
Tilly
Tig
Thú
Thôan
Thì
Thoi
Thiau
Tesco
Teluk
Tcherepnin
Tc
Taw
Tavolang
Tauri
Tapas
TaiN2
Tafalong
Tada
Taai
TWI
TUMI
TRO
TRAIN
TOP1
TMC
TKO
THOAN5
THINK
TGI
TG10
TENN
TEMU1000
TAURUS
TAL
TAKA
TAIJI
TAB
T33
T17
Sèⁿ
Sàng
Syriza
Swin
Sutherland
Sut8
Surrey
Supply
Supers
Superb
Sumatra
Suk
Suho
Suede
Stuxnet
Stupid
Strasbourg
Sting
Stevenson
Ster
Statistics
Stafford
Stacey
Spen
Soylent
Sotheby
Sot
Sop
Soleimani
Sole
Solan
Soi
SoaiN7
Smu
Smi
Slide
Skeleton
Ske
Skar
Siva
Siu5
Sira
Sint
Siege
Shy
Shoki
Shiny
Shining
Shing
Shim
Shek
Shee
Sharma
Shap
Shak
Shab
Setia
Session
Seo
Seminar
Sedan
Seat
Script
Schön
Schr
Schlumberger
Schilling
Sch
Sauveur
Sauron
Sau3
Sann
Sanjay
Samu
Sampson
Samo
Samm
Salomon
Salm
Salins
Salem
Sais
STIF
STAYREAL
SST
SSP
SSM
SSB
SRS
SRP
SRAM
SPP
SPAS
SMI
SLS
SLK
SLE
SLC
SIR
SILVER
SETI
SBIR
SAVE
SAKURA
S11
S0
Ryanair
Runway
Rui
Rudd
RubberBand
Roses
Rooms
Romans
Romano
Rok
Roj
Rog
Rocc
Roberta
Robb
Roach
Ritz
Ringo
Rigs
Rig
Revision
Revel
Resonance
Resolution
Reset
Renta
Reims
Reim
Rega
Rec
Ratchanok
Rankings
Raid
RPS2
RPS1
RPL3
RPL2
RPL1
RMS
RIS
RDS
RCT
RBS
RAL
R25
R12
Quo
Quentin
Queensland
Qo
QPI
Q8B
Q19
Q16
Pé
Pán
Pum
Pulau
Pula
Pui5
Pue
Pud
Prototype
Protestant
Properties
Programming
Producer
Problem
Priscilla
Prac
Poàⁿ
PowerBook
Potsdam
PostScript
Positive
Pos
Poo
Ponta
Pompey
Polk
Politics
Poe2
Playing
Plasma
Plas
Plague
Pippen
Pillar
Pike
Philosophy
Phian3
Pheng
Pharmaceuticals
PhD
Pf
Petti
Pett
Petite
Perspective
Persia
Pero
Perip
Pele
Pearson
Pe2
Payton
Pavel
Pav
Paulin
Patriot
Patel
Pasha
Parent
Paradox
Pao
Panzer
Panthe
Panic
Panc
Panama
Paltrow
Palacio
Pae
PVB
POINTS
PNP
PLOS
PLAZA
PLAN
PHOE
PGC
PEM
PEH
PAI
PAD
Ozuna
Oxy
Ottoman
Ott
Otosang
Osborne
Opp
Opening
OpenBSD
Olympics
Olsen
Oloron
Olie
Olaf
Oksana
Oj
Officers
Offer
Ochoa
Oc
ORIGIN
OREO
OPT
ONLINE
OE7
ODBC
OCCITANE
Nylon
Nus
Nuri
Novi
Noguchi
Nog
Nk
Niss
Nika
Nicholson
Ngugi
Ngi
Ngai3
NetBSD
Nehalem
Neel
NeXT
Naw
Nand
Nal
Nakh
Nae
Nab
NORTH
NON
NNN
NIVEA
NDP
NDMA
NCSA
NAV
N11
Mü
Mér
Myles
MyCard
Muslims
Murata
Munt
Muc
Mubarak
Mous
Mott
Moti
Morte
Morr
Morph
Moreland
Mood
Monthly
Monique
Money101
Monet
Mond
Mobius
Mobi
Moana
MnO
Ml
Mita
Mirotic
Mirande
Mirage
Minnie
Minas
Mik
Mie
Micros
Meyers
Meteorological
Merk
Mercy
Menendez
Memories
Melvita
Melt
Melli
Melanchthon
Medusa
Medicare
Meadows
McGregor
McGraw
McGill
McConnell
Mays
Maximum
Maxi
Maurizio
Matte
MasterCard
Massi
Masha
Marx
Marwin
Martini
Marquis
Marni
Markus
Markieff
Marissa
Margiela
Marcell
Manz
Manus
Manufacture
Mansour
Mania
Mando
Mand
Malia
Malala
Makatao
Maj
Maier
Mahdi
Mahal
Magi
Mage
Mads
Machines
Maa
MSO
MSF
MRPS2
MRPS1
MRPL3
MRPL2
MRPL1
MOBA
MMO
MMI
MIND
MERC
MEMO
MEGA
MEG
MD5
MC40
MAM
M81
M48
M32
M22
M1902
LÂNG
Lynne
Lyn
Lunéville
Luang
Loi
Locke
Lob
Llo
Livonia
Livingstone
Liong7
Lino
Lindor
Lifestyle
Lies
LibreOffice
Libor
Letters
Lent
Lennon
Leigh
Leg
Laurence
Laurel
Latte
Lata
Lao
Lande
Lana
Lamigirls
Lami
Lais
Laga
LUX
LOTUS
LKK
LIOK8
LIM
LIGHT
LGPL
LEM
LEA
L0
KÌ
Kyrgios
Kuz
Kuru
Kultur
Kuka
KuKu
Kovrig
Kou5
Kosovo
Konrad
Kolo
Koda
Knock
Kni
Klin
Kirsten
Kipnis
Kine
Kie
KiaN3
KiKi
Khóo
Khánum
Khuì
Khoân
Khoán
Keⁿ
Kering
Kep
Kendrys
Keeper
Kaya
Kareem
Kappa
Kanta
Kaka
Kac
Kab
KYMCO
KYB
KON
KOAN
KKday
KEI
KEEP
KDQ
KANG
K60
K35
K230UB
K15
K117
Jus
Juni
Josephus
Jive
Jih
Jelly
Jayden
Javascript
Jaquet
Janus
Jahan
Jaff
Jacket
Jabbar
Jaa
JVM
JUN
JL81
JL80
JFL
JCT
JAX
JASONS
JAC
Ito
Ita
Issa
Isha
Ipsos
Inti
Intanon
Innovia
Inferno
Indra
Inditex
Impe
Impact
Iat8
Iat
IY
IRI
INA
IMEI
ICQ
Hundred
Hun3
Hs
Hox
Host
Horner
Horne
Horlogerie
Holm
Holle
Holder
Hm7
Hiok
Hing
Hind
Hille
Hilary
HiRISE
Hermès
Hendrik
Hein
Hedge
Heaney
Hazel
Haz
Hav
Hatt
Hass
Hartmann
Harrods
Harrington
Harmoni
Harm
Harlem
Harding
Hamid
Hama
Halu
Hail
HOR
HMV
HMM
HL7
HKG2
HITO
HINA
HDPE
H7N
Gü
Göt
Gán
Gwyneth
Guî
Guterres
Gull
Guerlain
Guba
Guadalupe
Gry
Grot
Grei
Granville
Gourdon
Gonzalo
Gond
Golds
Golan
Goblin
Goa3
GoFundMe
Glaser
Giulio
Girons
Giri
Gillian
Ghosn
Ghi
Gerber
Geography
Genet
Gellner
Ge5
Gaya
Gand
Gamb
Gam
Galv
Gallup
Gallardo
Galil
Gage
GT500
GT4
GT3
GSK
GREEN
GNZ48
GIC
GER
GED
GE51
GCE
GACKT
Fuel
Fronte
Freud
FreeRTOS
Fougères
Forth
Forster
Fors
Forrester
Forester
Foot
Foo
Fonseca
Fom
Fl
Fia
Felton
Feld
Fel
Fedders
Fearless
Faul
Fata
Fargo
Fantastic
Falcom
Fake
FaceTime
FZ
FRAN
FQ
FORT
FK4
FIS
FINA
FEMA
FCI
FASHION
FAL
F21
F16A
Ewe
Evian
Ev
Eunice
Espana
Espa
Eri
Erde
[...]
